<unk>	0
<s>	0
</s>	0
▁the	-2.93842
,	-3.18946
.	-3.39004
▁of	-3.58353
s	-3.63581
▁and	-3.82605
▁in	-3.89036
▁to	-4.12754
▁a	-4.14687
▁	-4.3937
▁"	-4.78015
-	-4.86177
▁is	-4.93932
▁was	-4.98854
"	-5.0139
▁as	-5.03499
▁for	-5.16321
'	-5.18004
▁by	-5.20755
▁that	-5.22468
▁with	-5.2571
▁on	-5.38506
▁(	-5.39509
ing	-5.51274
▁from	-5.58358
▁his	-5.67227
ed	-5.6758
▁it	-5.68967
▁are	-5.70144
▁an	-5.74486
##	-5.78631
▁he	-5.80636
▁at	-5.8248
▁be	-5.87254
▁or	-5.89684
▁which	-5.9239
)	-5.93263
▁were	-5.98946
▁this	-6.10889
e	-6.19278
d	-6.23085
a	-6.2355
▁have	-6.2715
▁had	-6.28262
▁not	-6.29936
▁also	-6.29999
|	-6.32167
▁has	-6.3484
;	-6.3641
▁their	-6.4322
▁but	-6.43305
▁its	-6.46656
:	-6.47842
▁one	-6.48322
▁other	-6.49623
▁first	-6.51784
ly	-6.54168
th	-6.55012
",	-6.58347
▁been	-6.60524
▁they	-6.64561
="	-6.64627
▁after	-6.711
),	-6.7131
y	-6.71381
▁who	-6.76848
er	-6.77432
▁such	-6.7761
t	-6.78102
▁more	-6.79413
▁some	-6.80072
▁all	-6.80553
▁most	-6.80793
▁used	-6.8093
i	-6.81125
the	-6.8142
▁two	-6.81726
al	-6.83268
n	-6.83534
▁can	-6.8386
".	-6.85217
en	-6.8593
▁new	-6.85988
).	-6.91811
▁when	-6.92343
es	-6.92366
▁into	-6.92609
in	-6.9356
o	-6.94501
▁there	-6.96735
▁than	-6.97659
▁during	-6.99405
▁many	-6.99651
▁these	-7.00786
▁time	-7.00787
▁may	-7.00835
c	-7.04954
▁would	-7.05132
▁over	-7.06093
▁only	-7.06966
▁between	-7.09232
/	-7.09411
▁her	-7.1348
▁world	-7.1857
r	-7.19477
g	-7.19557
▁about	-7.24893
▁war	-7.26031
▁while	-7.26086
m	-7.26325
doc	-7.2688
▁no	-7.2843
▁use	-7.30084
▁city	-7.30694
>	-7.31551
▁years	-7.32294
▁states	-7.32961
b	-7.33048
▁known	-7.33137
▁later	-7.33986
▁him	-7.34721
▁de	-7.3603
l	-7.37049
▁so	-7.37412
▁re	-7.37636
▁state	-7.37638
▁however	-7.3924
▁under	-7.39688
▁century	-7.40451
▁both	-7.40614
k	-7.40937
▁early	-7.41923
▁i	-7.42147
▁where	-7.42736
▁well	-7.44049
▁people	-7.4444
▁made	-7.44559
▁being	-7.45111
p	-7.47918
▁american	-7.48019
▁out	-7.48248
▁became	-7.48456
▁up	-7.49348
▁three	-7.49546
▁through	-7.4993
▁number	-7.49935
▁including	-7.51186
ic	-7.51743
▁united	-7.5183
▁system	-7.52067
▁called	-7.52082
▁since	-7.52587
▁part	-7.53681
us	-7.54798
re	-7.551
▁them	-7.57525
or	-7.5853
▁d	-7.59242
▁al	-7.60374
▁government	-7.61478
▁then	-7.61975
an	-7.62281
▁if	-7.62807
▁because	-7.6333
▁she	-7.63416
▁work	-7.63551
▁formula	-7.66236
▁several	-7.66652
▁high	-7.66894
▁national	-7.6701
▁could	-7.67079
▁before	-7.67528
▁title	-7.6754
▁year	-7.68694
to	-7.69394
f	-7.69797
▁second	-7.70536
h	-7.71005
ers	-7.71369
▁any	-7.71528
▁against	-7.71817
▁un	-7.72657
▁found	-7.73296
▁same	-7.73712
▁name	-7.74593
▁each	-7.75171
▁large	-7.75253
▁form	-7.75766
▁south	-7.75779
▁often	-7.75884
–	-7.76716
▁("	-7.77587
▁north	-7.7918
▁until	-7.806
▁british	-7.80967
on	-7.81112
ation	-7.81745
▁example	-7.82384
▁according	-7.8248
▁life	-7.82721
▁although	-7.82861
ism	-7.82967
st	-7.84021
▁among	-7.84575
▁group	-7.84959
▁1	-7.85045
▁do	-7.85444
▁will	-7.86227
v	-7.86859
▁include	-7.87558
▁country	-7.87947
▁major	-7.89112
▁modern	-7.89188
▁b	-7.89758
▁around	-7.89842
▁like	-7.89884
▁history	-7.90434
?	-7.90853
▁following	-7.92347
▁c	-7.9248
man	-7.92503
▁due	-7.92579
▁different	-7.92822
▁film	-7.92887
▁categories	-7.93197
▁four	-7.93364
▁those	-7.94118
le	-7.94396
org	-7.94411
▁language	-7.95038
▁id	-7.95898
na	-7.96392
▁area	-7.96432
▁end	-7.97069
▁did	-7.97091
ar	-7.97913
2	-7.98137
▁common	-7.98199
▁another	-7.98368
—	-7.98524
▁water	-7.99458
▁even	-7.99637
wikipedia	-7.9987
wiki	-8
▁g	-8.00198
▁17	-8.00308
://	-8.00469
https	-8.00473
")	-8.00496
▁url	-8.00518
▁church	-8.00779
▁<	-8.00815
curid	-8.00859
▁death	-8.00898
▁</	-8.00938
u	-8.00962
▁general	-8.01184
▁set	-8.01197
ion	-8.01295
▁much	-8.01467
▁long	-8.0163
▁million	-8.01717
."	-8.02012
▁3	-8.02073
▁power	-8.02157
▁16	-8.03029
▁u	-8.0309
▁population	-8.03192
▁sea	-8.03323
▁series	-8.03538
ist	-8.04642
▁own	-8.04754
▁based	-8.04827
▁non	-8.04858
▁per	-8.05011
z	-8.0614
▁began	-8.06566
ia	-8.06771
▁period	-8.06875
as	-8.06925
▁air	-8.07271
x	-8.0779
▁within	-8.08002
▁public	-8.08379
▁using	-8.08587
▁english	-8.08625
▁e	-8.09004
▁book	-8.09517
is	-8.09572
▁king	-8.09577
▁2	-8.1015
w	-8.10257
▁small	-8.1028
▁order	-8.10359
▁us	-8.10465
▁international	-8.10493
▁apollo	-8.11144
el	-8.11552
▁very	-8.12261
▁military	-8.12727
▁still	-8.13392
▁development	-8.13482
▁15	-8.135
ian	-8.13519
▁day	-8.13681
▁ii	-8.13747
▁art	-8.14458
▁west	-8.14467
▁great	-8.14883
▁black	-8.15718
able	-8.16151
▁home	-8.16273
▁family	-8.16314
▁co	-8.164
▁m	-8.16648
de	-8.1669
▁roman	-8.17275
▁st	-8.17323
▁'	-8.17554
▁university	-8.17575
ra	-8.17812
▁20	-8.18203
▁east	-8.18412
▁led	-8.18445
▁now	-8.18488
ity	-8.18675
it	-8.18896
▁important	-8.19132
▁school	-8.19221
▁music	-8.19592
▁5	-8.19634
▁considered	-8.19681
▁region	-8.19944
▁army	-8.20018
▁–	-8.2021
▁support	-8.20592
▁10	-8.21004
▁4	-8.21273
▁back	-8.21669
ta	-8.21792
▁french	-8.22232
▁court	-8.22359
▁said	-8.22492
▁main	-8.22825
▁term	-8.23572
la	-8.24014
▁various	-8.24221
▁german	-8.2438
▁place	-8.24395
▁v	-8.24859
▁what	-8.2494
ment	-8.25779
▁f	-8.26005
▁local	-8.26127
▁late	-8.26933
▁land	-8.2706
▁man	-8.27156
▁empire	-8.27348
ry	-8.2764
▁point	-8.27743
▁human	-8.2815
and	-8.28189
ma	-8.28973
▁greek	-8.29315
▁men	-8.29404
▁union	-8.29572
id	-8.29875
▁along	-8.29971
at	-8.30335
▁published	-8.30423
▁given	-8.30522
▁law	-8.30674
▁political	-8.3071
ri	-8.30924
▁control	-8.30957
▁wrote	-8.31027
▁largest	-8.31343
▁production	-8.31462
▁make	-8.31559
ne	-8.31757
▁son	-8.32454
▁species	-8.32526
century	-8.32713
▁without	-8.33028
▁took	-8.33277
co	-8.33424
ive	-8.33561
▁though	-8.33699
▁included	-8.33962
▁become	-8.33971
▁11	-8.34228
ro	-8.34419
▁p	-8.34456
▁way	-8.3467
▁last	-8.34739
3	-8.34889
▁company	-8.34916
▁developed	-8.3501
▁members	-8.35653
te	-8.35756
▁single	-8.35792
▁bc	-8.36188
▁similar	-8.36296
▁party	-8.3634
▁near	-8.36355
▁president	-8.36752
▁game	-8.37097
▁popular	-8.37319
▁left	-8.37692
▁countries	-8.37762
▁european	-8.38137
am	-8.38211
▁times	-8.38806
▁less	-8.38881
ine	-8.38899
▁western	-8.38967
1	-8.38987
▁river	-8.39303
▁ancient	-8.39586
▁service	-8.396
il	-8.39898
▁line	-8.40291
um	-8.40384
▁europe	-8.40775
▁age	-8.4084
▁o	-8.4095
▁established	-8.41001
▁john	-8.41502
▁held	-8.41769
▁12	-8.4198
▁thus	-8.42422
▁6	-8.42452
▁k	-8.42507
▁research	-8.42598
▁third	-8.42749
▁god	-8.42798
▁five	-8.42845
▁space	-8.42884
▁works	-8.43193
▁result	-8.43201
▁case	-8.4339
▁named	-8.43615
▁7	-8.44177
▁(19	-8.44426
▁usually	-8.4452
▁having	-8.44533
▁central	-8.44693
▁we	-8.44822
▁team	-8.45909
▁island	-8.46018
▁house	-8.46083
▁la	-8.46114
▁anti	-8.46262
▁r	-8.46538
▁came	-8.46548
▁few	-8.46701
▁18	-8.46927
▁light	-8.47031
▁8	-8.4708
ter	-8.47486
be	-8.47622
▁produced	-8.47828
ton	-8.48137
▁old	-8.48176
▁14	-8.48423
▁pre	-8.48658
os	-8.4886
▁earth	-8.48999
▁league	-8.49044
tic	-8.49058
▁original	-8.49171
ch	-8.49227
▁father	-8.4924
▁19	-8.49292
▁act	-8.49354
▁systems	-8.49455
▁alexander	-8.49466
▁further	-8.49539
▁battle	-8.49572
▁t	-8.49761
▁written	-8.49786
▁di	-8.49854
▁body	-8.50362
▁down	-8.50377
▁women	-8.50446
▁york	-8.50528
▁force	-8.50637
▁total	-8.51032
▁forces	-8.51085
▁built	-8.51743
▁march	-8.51873
▁side	-8.52112
un	-8.52221
▁theory	-8.52402
▁free	-8.52552
▁low	-8.52726
ur	-8.52861
▁short	-8.52995
da	-8.5313
no	-8.53414
▁august	-8.53593
▁head	-8.53609
▁groups	-8.53903
▁field	-8.54205
▁word	-8.54327
▁white	-8.54537
▁h	-8.54568
▁natural	-8.54832
▁former	-8.55314
▁best	-8.55328
▁every	-8.5539
ate	-8.55576
▁role	-8.55674
▁described	-8.55823
▁released	-8.56171
ul	-8.56244
▁present	-8.56453
▁range	-8.56701
▁does	-8.56787
▁sometimes	-8.56943
▁kingdom	-8.56972
▁social	-8.57122
▁september	-8.57124
et	-8.57697
j	-8.5779
▁either	-8.57974
4	-8.58067
▁southern	-8.58205
▁13	-8.58535
ad	-8.5855
ent	-8.58777
▁england	-8.59316
8	-8.59654
▁w	-8.59766
li	-8.5984
▁just	-8.59921
▁languages	-8.60069
ized	-8.60128
amp	-8.60293
▁sub	-8.60438
▁take	-8.60951
▁car	-8.61164
▁position	-8.6127
▁areas	-8.61303
ce	-8.61682
▁economic	-8.61707
▁should	-8.61901
▁play	-8.61926
▁african	-8.62088
▁me	-8.62117
▁april	-8.62233
▁others	-8.6245
▁addition	-8.6268
▁capital	-8.62747
up	-8.63267
▁america	-8.63347
▁january	-8.63654
▁con	-8.6376
▁children	-8.63795
ary	-8.63861
▁j	-8.63869
▁games	-8.63894
▁july	-8.63941
▁computer	-8.64187
▁october	-8.6422
▁far	-8.64413
▁half	-8.64475
▁december	-8.64491
▁right	-8.64528
▁apple	-8.65171
me	-8.65375
▁design	-8.65428
▁northern	-8.65719
ca	-8.65837
▁how	-8.65847
▁post	-8.6606
▁won	-8.6625
▁base	-8.6649
▁died	-8.6688
▁november	-8.66954
5	-8.66985
▁throughout	-8.67048
▁received	-8.67077
▁june	-8.67141
▁show	-8.67279
▁rather	-8.6735
▁continued	-8.67429
▁created	-8.67458
▁9	-8.67566
▁especially	-8.67788
▁upon	-8.67823
▁study	-8.67869
ated	-8.68058
▁generally	-8.68301
▁go	-8.68543
he	-8.68552
▁council	-8.68628
▁must	-8.69187
▁l	-8.69234
▁process	-8.69406
▁significant	-8.69431
▁eastern	-8.69741
▁next	-8.69756
▁pro	-8.70109
▁royal	-8.70126
ge	-8.70186
se	-8.70373
▁aircraft	-8.70504
▁acid	-8.70584
▁data	-8.70613
▁instead	-8.71142
▁himself	-8.71192
▁le	-8.71253
▁version	-8.71378
▁evidence	-8.71447
▁least	-8.7145
"),	-8.71453
son	-8.71577
▁town	-8.71619
▁possible	-8.71621
▁final	-8.71803
ant	-8.72068
▁played	-8.72524
▁off	-8.7278
▁na	-8.72894
ba	-8.72926
▁type	-8.73097
▁making	-8.73403
▁standard	-8.73447
ti	-8.73552
▁education	-8.73672
▁sa	-8.73703
▁center	-8.73889
▁thought	-8.73957
▁open	-8.74827
▁formed	-8.75186
▁hand	-8.75369
▁lower	-8.75389
▁christian	-8.75456
ol	-8.75683
▁culture	-8.75912
▁once	-8.7626
▁six	-8.7631
▁higher	-8.76329
6	-8.76663
▁france	-8.7682
▁followed	-8.76846
▁ad	-8.76928
ga	-8.7701
▁together	-8.77118
▁forms	-8.77205
▁middle	-8.77246
▁program	-8.77427
do	-8.77509
▁above	-8.77556
▁surface	-8.77565
▁again	-8.77986
]	-8.77988
▁mid	-8.78075
▁almost	-8.78317
▁vi	-8.78465
▁community	-8.78512
▁seen	-8.78567
ness	-8.78616
▁food	-8.78677
di	-8.78727
▁red	-8.78729
▁trade	-8.79065
▁function	-8.79186
▁season	-8.79188
▁society	-8.79237
▁model	-8.79261
land	-8.79525
▁average	-8.79646
▁building	-8.79809
▁religious	-8.79988
▁style	-8.80021
men	-8.80026
▁energy	-8.80248
▁germany	-8.80395
ck	-8.80908
▁mission	-8.81111
▁territory	-8.81331
ous	-8.81584
▁movement	-8.81663
ir	-8.81988
▁africa	-8.82059
▁never	-8.8221
▁located	-8.82308
▁dis	-8.82486
▁latin	-8.82545
▁sent	-8.82611
ka	-8.82834
▁change	-8.8294
▁fire	-8.82997
ve	-8.83108
▁office	-8.83117
go	-8.83133
espite	-8.83483
▁islands	-8.83534
ies	-8.83576
ted	-8.83586
▁level	-8.83716
▁top	-8.83872
▁current	-8.84
▁ca	-8.84002
ium	-8.8421
▁size	-8.84268
american	-8.84427
con	-8.84489
▁science	-8.84556
nd	-8.84561
lo	-8.84776
▁elements	-8.84908
▁influence	-8.85087
▁means	-8.85238
▁effect	-8.85518
▁terms	-8.85645
im	-8.85751
▁member	-8.85781
▁command	-8.85889
▁information	-8.85959
▁san	-8.8607
▁introduced	-8.8643
▁ten	-8.8651
▁rights	-8.86562
▁person	-8.86679
ally	-8.86695
▁special	-8.86726
one	-8.86754
▁little	-8.86868
▁star	-8.86921
▁good	-8.87172
▁today	-8.87284
▁parts	-8.87285
▁structure	-8.8747
▁lost	-8.87499
ie	-8.87578
▁flight	-8.87658
▁soviet	-8.87689
▁health	-8.87718
▁market	-8.87816
▁industry	-8.87891
▁across	-8.88016
▁associated	-8.88065
rs	-8.88081
▁civil	-8.88201
▁provide	-8.8836
▁available	-8.88509
▁meaning	-8.88524
▁site	-8.88796
▁park	-8.8881
▁official	-8.88863
▁certain	-8.88927
▁n	-8.88939
ting	-8.8898
▁taken	-8.89186
less	-8.89655
▁particular	-8.89722
▁full	-8.89785
if	-8.8992
▁itself	-8.90004
▁days	-8.90078
▁value	-8.90234
ph	-8.9067
ex	-8.90718
▁&	-8.90845
▁television	-8.90863
▁australia	-8.91004
▁gave	-8.9104
▁gas	-8.91083
▁traditional	-8.91336
▁economy	-8.9162
▁see	-8.91821
▁mass	-8.92122
day	-8.92126
▁foreign	-8.92139
▁crew	-8.92288
▁mother	-8.92489
▁remained	-8.926
▁increased	-8.92796
▁young	-8.92828
▁eventually	-8.93071
▁ma	-8.93146
▁record	-8.93183
ha	-8.93211
▁oil	-8.93211
▁story	-8.93292
▁source	-8.93365
bi	-8.9359
▁native	-8.93611
ists	-8.93705
▁referred	-8.9374
▁books	-8.93894
▁view	-8.9394
▁related	-8.93954
▁club	-8.93977
▁basic	-8.94026
▁india	-8.94082
▁players	-8.94136
▁rate	-8.94467
per	-8.94515
▁born	-8.94677
▁strong	-8.94704
▁announced	-8.94829
▁designed	-8.95038
▁test	-8.95108
▁ex	-8.95133
▁run	-8.95162
age	-8.9527
▁cities	-8.95374
mo	-8.95642
line	-8.95867
▁help	-8.95918
▁reported	-8.96135
é	-8.96214
_	-8.96314
▁services	-8.96335
▁february	-8.96394
va	-8.96479
▁numbers	-8.96604
lu	-8.96678
▁allowed	-8.96896
▁believed	-8.97235
▁berlin	-8.97479
▁return	-8.97587
▁particularly	-8.97704
0	-8.97846
▁character	-8.97894
ization	-8.98021
▁nature	-8.98051
▁served	-8.98129
▁real	-8.98265
▁whose	-8.98402
▁events	-8.98436
▁fact	-8.9844
▁rule	-8.98491
▁x	-8.986
ling	-8.98651
ni	-8.98656
▁technology	-8.98671
▁effects	-8.98712
▁lunar	-8.98825
▁growth	-8.99161
▁1990	-8.99314
▁writing	-8.99491
est	-8.99497
▁might	-8.99535
▁features	-8.9956
▁therefore	-8.99766
▁close	-8.99974
▁ground	-9.00211
▁individual	-9.00222
▁moved	-9.0023
▁my	-9.00337
▁went	-9.00385
▁project	-9.00661
ty	-9.00777
▁russian	-9.0097
▁saw	-9.01141
▁minister	-9.01243
7	-9.01293
▁business	-9.01458
ley	-9.01523
▁catholic	-9.01752
▁era	-9.01783
▁allow	-9.01826
time	-9.01895
▁election	-9.01915
▁able	-9.0193
▁software	-9.02026
▁beginning	-9.02109
▁words	-9.02394
▁brought	-9.02581
pa	-9.02594
tion	-9.02627
▁live	-9.02961
▁award	-9.02965
▁construction	-9.03067
▁video	-9.03119
▁album	-9.03239
ance	-9.03412
▁asia	-9.03427
▁returned	-9.03538
▁moon	-9.0358
▁republic	-9.03737
▁started	-9.03929
▁federal	-9.03964
").	-9.03969
ig	-9.04143
▁key	-9.04311
▁william	-9.0433
year	-9.04348
▁provided	-9.04367
▁increase	-9.04518
▁founded	-9.04533
▁primary	-9.04625
▁media	-9.0478
▁account	-9.04804
▁living	-9.04881
based	-9.05051
▁climate	-9.05141
▁self	-9.05322
▁inter	-9.05516
▁required	-9.0569
▁division	-9.05851
▁personal	-9.05874
▁outside	-9.06123
▁arabic	-9.0624
▁latter	-9.06341
▁leading	-9.06358
▁met	-9.06409
ron	-9.06461
▁you	-9.06844
▁commonly	-9.06888
▁material	-9.06913
▁port	-9.06924
▁treatment	-9.06932
▁london	-9.06959
▁products	-9.07063
▁lack	-9.07111
▁cause	-9.07174
▁larger	-9.07242
▁se	-9.07292
▁sun	-9.07356
▁includes	-9.07384
▁2000	-9.0739
▁added	-9.07571
▁away	-9.07649
ut	-9.07702
ah	-9.07753
▁iii	-9.07769
▁li	-9.07779
ts	-9.078
▁cultural	-9.07914
▁30	-9.07937
▁board	-9.08049
▁earlier	-9.08085
▁museum	-9.08092
▁billion	-9.08488
▁conditions	-9.08597
▁2010	-9.08628
▁cases	-9.08632
▁remains	-9.08788
▁am	-9.0881
we	-9.08815
▁types	-9.08873
▁campaign	-9.08927
▁emperor	-9.08998
min	-9.09049
50	-9.0913
▁private	-9.09505
ac	-9.09529
▁indian	-9.09538
tra	-9.09618
▁lead	-9.09685
ab	-9.09797
em	-9.09829
ke	-9.0989
▁australian	-9.09971
▁widely	-9.09985
▁typically	-9.09999
▁whether	-9.10031
ish	-9.10061
▁companies	-9.10192
▁limited	-9.10369
▁direct	-9.10421
▁specific	-9.10582
les	-9.10583
▁historical	-9.10594
▁studies	-9.1063
▁coast	-9.10635
▁produce	-9.10733
lt	-9.10849
▁names	-9.10869
▁action	-9.10886
bo	-9.11109
▁college	-9.1133
▁caused	-9.11482
▁21	-9.11558
▁majority	-9.11892
ā	-9.11915
▁mostly	-9.12024
▁highest	-9.12057
▁complex	-9.12103
▁success	-9.12131
▁centre	-9.12181
▁front	-9.12213
ja	-9.12217
▁independent	-9.12221
▁interest	-9.12233
▁el	-9.12352
▁variety	-9.12356
10	-9.12492
▁unit	-9.12637
▁towards	-9.12646
▁radio	-9.12688
▁stated	-9.12697
ius	-9.12741
&	-9.12802
▁rest	-9.12981
▁months	-9.1339
▁commercial	-9.13404
(	-9.13497
▁schools	-9.13505
▁sound	-9.13605
▁network	-9.13744
▁blood	-9.13753
▁[	-9.13785
▁discovered	-9.13838
▁subject	-9.13938
▁soon	-9.14026
▁1970	-9.14053
▁seven	-9.14439
▁sold	-9.14475
for	-9.14523
▁likely	-9.1454
▁below	-9.14555
pi	-9.14581
▁1980	-9.14726
▁put	-9.1495
▁greater	-9.15016
▁song	-9.15048
mer	-9.15115
▁author	-9.15128
▁recent	-9.15134
▁physical	-9.15182
▁spanish	-9.15184
▁attack	-9.15204
▁access	-9.15279
ot	-9.15433
▁province	-9.15673
▁working	-9.15869
▁consist	-9.159
▁sources	-9.15911
▁originally	-9.16083
▁come	-9.16259
mi	-9.16261
▁ka	-9.16329
▁class	-9.16442
▁buddha	-9.16468
▁career	-9.16476
▁prime	-9.16514
▁britain	-9.16608
way	-9.16754
▁directly	-9.16761
▁always	-9.16883
▁killed	-9.17012
▁letter	-9.17032
▁2016	-9.1704
▁successful	-9.17161
gi	-9.1719
au	-9.17248
▁product	-9.1727
▁hall	-9.17353
▁percent	-9.17424
▁supported	-9.17452
▁bar	-9.17455
like	-9.17525
▁future	-9.17621
▁metal	-9.17699
▁numerous	-9.17709
pe	-9.1785
▁brother	-9.17865
▁25	-9.1787
▁2006	-9.17877
▁whom	-9.17914
▁bell	-9.17968
▁method	-9.1803
▁tradition	-9.18052
▁regions	-9.1807
▁football	-9.18312
▁david	-9.18405
▁organization	-9.1847
▁mar	-9.18513
▁district	-9.18546
▁writers	-9.186
▁chief	-9.18608
▁rock	-9.18653
ci	-9.18654
▁properties	-9.18684
▁defined	-9.18741
▁separate	-9.18763
30	-9.18773
▁operations	-9.18847
▁longer	-9.18908
vo	-9.19001
▁themselves	-9.19103
▁plant	-9.19147
▁changes	-9.1917
▁bo	-9.19193
▁list	-9.19207
vi	-9.19316
▁appeared	-9.19378
▁results	-9.19418
iv	-9.19512
▁2009	-9.19536
▁ha	-9.1959
mon	-9.19776
–19	-9.19917
▁troops	-9.1993
ap	-9.19962
ber	-9.20063
▁2011	-9.20083
▁hard	-9.20087
sa	-9.20193
9	-9.20216
sh	-9.20232
ak	-9.20238
▁en	-9.20323
▁global	-9.20372
▁text	-9.20406
▁proposed	-9.20422
▁wife	-9.20518
▁summer	-9.20617
▁centuries	-9.20659
ny	-9.20669
▁transport	-9.20679
ster	-9.20728
ial	-9.20757
▁turn	-9.20829
out	-9.20872
▁governor	-9.20922
▁need	-9.20958
ana	-9.20984
▁approximately	-9.2118
▁stage	-9.21201
fi	-9.21396
pro	-9.21507
▁past	-9.21574
▁eight	-9.2161
▁lines	-9.2161
▁congress	-9.21806
▁replaced	-9.21931
▁nearly	-9.22001
ho	-9.22019
▁via	-9.22099
▁reached	-9.22159
▁legal	-9.2218
▁canada	-9.22291
▁scientific	-9.22336
▁da	-9.22389
ll	-9.22533
▁professional	-9.22632
▁1960	-9.22787
▁uses	-9.22962
▁release	-9.22971
▁units	-9.23087
▁100	-9.23158
▁report	-9.23178
▁association	-9.23211
▁complete	-9.23216
her	-9.23254
▁academy	-9.23258
▁paul	-9.23264
ite	-9.23312
▁smaller	-9.23315
▁2001	-9.23315
▁regional	-9.23361
▁ball	-9.2339
▁multiple	-9.23405
by	-9.23528
▁code	-9.23615
▁wide	-9.23709
▁origin	-9.23865
ham	-9.23871
▁problems	-9.23892
tri	-9.23921
▁dutch	-9.23951
▁atari	-9.23955
▁practice	-9.24027
▁better	-9.24141
▁response	-9.24178
▁china	-9.24311
ger	-9.24555
▁bank	-9.246
▁probably	-9.24794
▁george	-9.24798
▁launch	-9.24857
▁policy	-9.24881
▁brazil	-9.24887
ko	-9.24952
▁chemical	-9.25037
▁italy	-9.25045
bit	-9.25054
▁active	-9.2519
▁2007	-9.25238
▁philosophy	-9.25328
▁plan	-9.25461
▁alternative	-9.25564
▁bi	-9.25565
▁player	-9.25581
▁color	-9.25637
▁relatively	-9.25709
0,000	-9.25717
▁animals	-9.25754
▁literature	-9.25779
▁orbit	-9.25805
▁films	-9.25858
=2	-9.25929
▁mo	-9.25933
▁risk	-9.25937
▁financial	-9.25956
▁jews	-9.26
▁give	-9.26045
▁classical	-9.26091
ating	-9.26172
▁gold	-9.26312
▁baseball	-9.26316
▁estimated	-9.26325
▁(18	-9.26389
▁ba	-9.26498
▁carbon	-9.26566
▁pe	-9.26571
▁2008	-9.26703
tu	-9.26717
▁involved	-9.26723
▁create	-9.2695
▁clear	-9.27088
▁compared	-9.2716
▁performed	-9.27174
▁rise	-9.27232
▁already	-9.27289
▁previous	-9.2745
▁scholars	-9.27573
▁nations	-9.27625
▁ever	-9.2773
▁2018	-9.27734
11	-9.27887
▁placed	-9.27901
▁super	-9.27957
yl	-9.27958
▁temperature	-9.27976
der	-9.28054
ful	-9.28062
▁prevent	-9.28146
▁2019	-9.28182
▁highly	-9.28467
▁road	-9.28515
▁medical	-9.28516
▁prior	-9.28567
lin	-9.28652
ler	-9.28654
▁points	-9.28809
▁arab	-9.28881
▁charles	-9.28961
=1	-9.29097
▁van	-9.29138
▁male	-9.29266
▁2017	-9.29335
▁formation	-9.29339
▁adopted	-9.29367
▁daughter	-9.294
▁jewish	-9.29426
za	-9.29521
▁length	-9.29613
▁james	-9.29621
▁elected	-9.29673
▁object	-9.29782
▁birth	-9.29788
ities	-9.29815
▁russia	-9.2985
▁egypt	-9.29876
▁ne	-9.29928
▁idea	-9.30006
20	-9.30008
▁institute	-9.3003
▁element	-9.30379
▁afghanistan	-9.30447
▁ta	-9.30516
▁students	-9.30929
▁famous	-9.30966
▁recorded	-9.31035
▁parliament	-9.31312
▁leader	-9.31334
▁amount	-9.31335
▁italian	-9.31344
▁performance	-9.31359
ship	-9.31496
▁2020	-9.31604
▁border	-9.31622
▁henry	-9.32127
▁independence	-9.32175
▁rome	-9.32227
tor	-9.32357
▁attempt	-9.32486
▁married	-9.32607
▁training	-9.32619
▁additional	-9.32678
15	-9.32678
25	-9.33045
▁fall	-9.33091
▁analysis	-9.33096
▁start	-9.33182
ize	-9.33549
ina	-9.33684
▁divided	-9.33787
▁host	-9.33852
▁robert	-9.34068
▁religion	-9.34122
▁peace	-9.34137
▁relations	-9.34222
▁paris	-9.34376
▁too	-9.34388
▁influenced	-9.34449
▁worked	-9.34468
▁po	-9.3449
▁characters	-9.34524
▁novel	-9.34744
▁letters	-9.35024
▁records	-9.35348
io	-9.35428
▁whole	-9.35535
▁ocean	-9.35549
▁defense	-9.35707
▁pressure	-9.35713
á	-9.35806
▁yet	-9.35806
▁annual	-9.35896
▁medicine	-9.36041
▁industrial	-9.36041
▁forest	-9.36248
▁cost	-9.36293
▁visit	-9.36358
▁shah	-9.36423
▁hit	-9.36427
▁sense	-9.36559
▁initial	-9.36563
oc	-9.36564
▁derived	-9.36678
▁examples	-9.36685
ric	-9.36702
▁cross	-9.36706
▁athens	-9.36885
▁authority	-9.36907
▁represent	-9.37101
▁cell	-9.37158
▁americans	-9.37273
▁station	-9.37277
▁relationship	-9.37327
▁love	-9.37385
80	-9.37522
ence	-9.37589
ung	-9.37664
▁reign	-9.37715
▁laws	-9.37771
▁table	-9.37812
▁problem	-9.37881
▁wall	-9.37881
▁enough	-9.37887
▁upper	-9.37971
▁suggested	-9.37972
▁constitution	-9.37993
po	-9.38042
▁sp	-9.38047
▁winter	-9.38078
▁grand	-9.38159
▁claimed	-9.38177
▁lu	-9.38224
ner	-9.38227
▁marriage	-9.38277
▁chinese	-9.38458
▁churches	-9.38463
▁band	-9.38528
▁navy	-9.38568
▁shown	-9.3861
▁read	-9.3872
▁machine	-9.38734
▁mainly	-9.38769
▁issue	-9.38808
▁regard	-9.38903
▁objects	-9.39178
▁finally	-9.39191
▁represented	-9.39299
▁true	-9.39321
▁event	-9.39342
▁wood	-9.39398
▁initially	-9.39568
▁ho	-9.39586
▁potential	-9.39621
▁director	-9.39629
▁24	-9.398
car	-9.39819
▁security	-9.3982
fa	-9.39919
▁impact	-9.39943
of	-9.3997
▁activity	-9.39986
▁contains	-9.40057
▁pa	-9.40087
ier	-9.40196
▁cells	-9.4021
▁bay	-9.40221
▁date	-9.40264
▁administration	-9.40306
▁methods	-9.40398
▁speed	-9.40421
▁lincoln	-9.40457
▁artists	-9.4068
▁appear	-9.40699
ver	-9.40712
▁basis	-9.40812
red	-9.40893
▁2005	-9.40931
▁multi	-9.40967
gen	-9.40985
▁status	-9.40988
▁location	-9.40991
▁entire	-9.40998
▁call	-9.41094
▁fish	-9.41191
▁treaty	-9.4139
▁2015	-9.41431
pl	-9.41528
▁brain	-9.41573
▁appears	-9.41661
▁experience	-9.41719
▁cannot	-9.41766
▁depend	-9.41778
▁heart	-9.41891
▁night	-9.41907
op	-9.41913
▁done	-9.41926
▁completed	-9.41948
▁carried	-9.42033
mar	-9.42215
ran	-9.42222
▁levels	-9.42269
▁appointed	-9.42323
bar	-9.42366
ten	-9.4239
▁sch	-9.42459
▁revolution	-9.42548
ard	-9.42607
▁festival	-9.42646
▁japanese	-9.42656
▁electron	-9.42702
▁california	-9.42742
▁1,	-9.42768
▁buildings	-9.42807
▁refer	-9.42856
▁bill	-9.42965
▁ce	-9.43119
▁su	-9.43156
00	-9.43161
▁concept	-9.43188
tro	-9.43193
see	-9.43198
▁review	-9.43414
▁opened	-9.43418
▁assembly	-9.43501
▁primarily	-9.43635
40	-9.4376
▁reaction	-9.43769
▁presence	-9.43815
people	-9.43837
▁fourth	-9.4392
17	-9.4398
▁get	-9.44097
ae	-9.44125
den	-9.44165
q	-9.44242
▁distance	-9.44274
▁blue	-9.44304
▁consider	-9.44309
▁resistance	-9.44403
▁ram	-9.44504
wa	-9.4457
▁county	-9.44632
▁combined	-9.44771
▁our	-9.44785
▁changed	-9.44896
▁expansion	-9.44898
▁0	-9.44935
all	-9.44942
▁saint	-9.4495
▁=	-9.44965
▁()	-9.45039
▁forced	-9.45058
▁ni	-9.45111
▁tri	-9.45239
▁arts	-9.45355
▁weight	-9.4555
▁valley	-9.4561
▁contrast	-9.45627
▁texts	-9.45676
▁launched	-9.45682
▁operation	-9.45791
▁richard	-9.45817
▁alcohol	-9.45836
▁nine	-9.45862
▁needed	-9.45882
▁green	-9.45893
▁signed	-9.45941
▁notable	-9.45952
▁passed	-9.46088
▁oxygen	-9.46096
▁joined	-9.46168
▁victory	-9.46201
rd	-9.46288
▁tax	-9.46324
ene	-9.46345
▁reason	-9.46355
ator	-9.4637
▁issues	-9.46395
▁azerbaijan	-9.46395
▁nation	-9.46411
▁failed	-9.46425
▁iron	-9.465
▁23	-9.46542
ide	-9.46638
▁noted	-9.46667
▁spain	-9.46773
▁lord	-9.46821
▁albert	-9.46938
▁accepted	-9.46947
▁smith	-9.46986
▁sports	-9.47032
▁compounds	-9.47047
▁hours	-9.47053
▁exchange	-9.47136
▁peter	-9.47221
old	-9.47263
▁bridge	-9.47332
ns	-9.47356
ag	-9.47411
▁hydrogen	-9.47453
▁resulting	-9.47495
▁queen	-9.47499
▁taking	-9.47513
▁stars	-9.47583
off	-9.47603
▁property	-9.47668
▁argued	-9.47731
▁2004	-9.47892
▁plants	-9.47927
▁win	-9.48007
od	-9.48025
▁internal	-9.48083
br	-9.48204
▁exist	-9.48255
▁uk	-9.4826
ical	-9.48288
▁difficult	-9.48462
▁40	-9.48479
▁mean	-9.48479
end	-9.4856
▁shows	-9.48563
▁charge	-9.4858
▁ottoman	-9.48607
▁composed	-9.48609
▁decided	-9.48642
▁places	-9.48696
tal	-9.48723
▁department	-9.48863
▁collection	-9.48863
▁intended	-9.48891
▁ga	-9.48895
▁stone	-9.48945
▁22	-9.48953
▁behind	-9.49205
▁ability	-9.49275
16	-9.49361
ya	-9.49378
which	-9.49648
▁airport	-9.49653
▁earliest	-9.49736
▁signal	-9.49741
▁remain	-9.49842
=	-9.4985
form	-9.49859
▁here	-9.4989
▁memory	-9.49931
);	-9.49965
▁observed	-9.49968
▁2013	-9.50188
▁approach	-9.50249
%	-9.50354
▁musical	-9.5046
▁washington	-9.50502
▁knowledge	-9.50554
▁content	-9.50695
▁theatre	-9.50711
▁previously	-9.5072
▁definition	-9.50853
▁commander	-9.50868
▁reduced	-9.50878
▁armenia	-9.50934
ised	-9.5096
que	-9.5108
▁thomas	-9.51082
▁architecture	-9.51083
▁matter	-9.5123
▁mis	-9.51303
▁money	-9.51524
▁urban	-9.51559
▁ro	-9.51566
▁br	-9.51626
▁2003	-9.51715
▁bosnia	-9.51737
▁heavy	-9.51748
▁agreement	-9.51818
▁share	-9.51835
▁double	-9.51844
▁poor	-9.51876
▁functions	-9.51947
▁alexandria	-9.52101
▁bring	-9.52103
▁te	-9.52118
▁move	-9.5215
▁committee	-9.52246
▁hold	-9.5225
▁landing	-9.52294
▁becoming	-9.52333
▁identified	-9.52363
▁cur	-9.52436
can	-9.52443
▁square	-9.52508
▁defeated	-9.5252
▁feature	-9.52598
▁28	-9.52645
▁1950	-9.52866
field	-9.52959
▁equal	-9.53011
▁spread	-9.53022
▁claim	-9.53076
lic	-9.53126
▁imperial	-9.53304
▁occur	-9.53391
▁camp	-9.53513
▁child	-9.53542
▁materials	-9.53594
▁ships	-9.53751
▁lo	-9.53812
▁christ	-9.53846
▁lived	-9.53868
▁johnson	-9.53876
▁turned	-9.53902
gh	-9.53907
ze	-9.5391
▁degree	-9.53912
▁disease	-9.54021
art	-9.54138
▁ph	-9.54139
▁rules	-9.5422
▁1999	-9.54237
▁section	-9.54246
▁sector	-9.54449
zo	-9.54453
▁direction	-9.54496
my	-9.54609
▁applied	-9.5462
▁atlantic	-9.54643
▁loss	-9.54645
▁sign	-9.54807
▁japan	-9.54819
▁minor	-9.54826
▁cut	-9.54828
nes	-9.54839
▁decision	-9.54844
▁paper	-9.54888
▁script	-9.54913
▁contemporary	-9.55022
▁2002	-9.55097
▁prince	-9.5511
▁techniques	-9.55119
ü	-9.55175
=3	-9.55217
▁cave	-9.55271
▁effective	-9.55318
▁sexual	-9.55381
▁abu	-9.55447
▁pi	-9.55462
▁match	-9.55468
pp	-9.55473
▁speech	-9.55522
▁hill	-9.55607
▁animal	-9.55655
▁offered	-9.55656
▁alaska	-9.55694
▁bulgaria	-9.5574
▁press	-9.55876
▁foundation	-9.55928
▁cup	-9.55999
▁soldiers	-9.56004
▁tour	-9.56022
▁alpha	-9.56023
▁responsible	-9.56031
▁activities	-9.56235
▁du	-9.56351
ology	-9.56426
ru	-9.56497
▁armed	-9.56596
▁dead	-9.5661
▁reduce	-9.56653
▁ra	-9.56828
▁respectively	-9.56883
▁increasing	-9.56908
led	-9.5704
▁module	-9.57053
21	-9.57137
▁cast	-9.57175
18	-9.57181
▁hospital	-9.57257
du	-9.57291
▁declared	-9.573
27	-9.57303
▁labor	-9.57476
▁2022	-9.57489
▁50	-9.57587
▁woman	-9.57588
▁...	-9.57638
▁ibn	-9.57712
▁islamic	-9.57723
▁regular	-9.57767
har	-9.57841
▁choice	-9.57878
▁spent	-9.57903
▁aim	-9.57917
▁values	-9.58003
▁makes	-9.58085
▁remaining	-9.58105
▁older	-9.5822
▁trans	-9.58225
▁audi	-9.58242
14	-9.58345
▁vehicle	-9.58457
▁historian	-9.58616
hu	-9.5868
▁gun	-9.58747
ki	-9.58777
▁moral	-9.58778
▁families	-9.58801
▁ship	-9.58986
▁find	-9.59021
▁atlanta	-9.59173
▁currently	-9.5922
▁nor	-9.59303
▁care	-9.59309
▁protection	-9.59365
▁individuals	-9.59378
▁muslim	-9.59379
ell	-9.59408
▁street	-9.59475
ff	-9.59531
▁1998	-9.59559
▁advanced	-9.59673
▁ar	-9.59789
▁magnitude	-9.5979
▁target	-9.59809
▁ideas	-9.59874
ise	-9.59889
▁deaths	-9.59919
▁reference	-9.59935
▁louis	-9.59968
▁travel	-9.59998
mp	-9.60136
▁ended	-9.60227
▁prominent	-9.60244
▁deal	-9.60324
▁sc	-9.60564
▁communities	-9.60601
▁resulted	-9.60637
▁tu	-9.60683
▁constant	-9.60693
▁portuguese	-9.60701
▁except	-9.60716
so	-9.60759
▁eu	-9.60871
qui	-9.60896
▁temple	-9.61011
▁figures	-9.6102
▁female	-9.61096
▁conflict	-9.61222
hi	-9.61283
ure	-9.61306
ning	-9.6132
ach	-9.61348
▁colonies	-9.61458
▁palace	-9.61463
▁phase	-9.61465
▁consists	-9.61466
]]	-9.61491
ria	-9.61503
▁acids	-9.61668
▁par	-9.6178
▁ethnic	-9.61795
si	-9.6183
▁micro	-9.61837
▁police	-9.61885
kin	-9.61928
▁wa	-9.6196
▁question	-9.61973
▁simple	-9.62046
▁atoms	-9.62082
▁programs	-9.62091
▁agriculture	-9.621
▁entered	-9.62105
▁occurred	-9.62109
▁anglican	-9.62169
▁gain	-9.62188
gt	-9.62201
bel	-9.6229
▁mentioned	-9.62302
ib	-9.62446
▁teams	-9.62481
▁clinton	-9.62533
▁appearance	-9.62562
▁amsterdam	-9.62577
▁figure	-9.6263
▁provides	-9.6272
▁formal	-9.62731
▁supreme	-9.6275
ors	-9.62768
▁semi	-9.62841
king	-9.62846
▁subsequently	-9.62882
▁beyond	-9.62967
▁freedom	-9.6298
▁motion	-9.6299
▁lake	-9.6308
70	-9.63112
▁egyptian	-9.63125
▁ko	-9.63156
▁alberta	-9.6317
com	-9.63351
▁applications	-9.63383
▁opposition	-9.63405
▁develop	-9.6344
86	-9.63448
▁alphabet	-9.63624
▁commission	-9.63814
▁persian	-9.63837
▁contact	-9.63841
▁greece	-9.63841
▁operating	-9.63853
▁atom	-9.63867
í	-9.63916
▁positive	-9.64061
▁mountains	-9.64096
▁extended	-9.64176
▁grant	-9.64254
▁poly	-9.64336
▁image	-9.64339
▁sites	-9.64343
▁existence	-9.64348
ip	-9.64361
ability	-9.64424
▁claims	-9.64533
▁augustine	-9.64571
▁territories	-9.64723
▁austin	-9.64724
▁contain	-9.64734
▁face	-9.64825
▁distinct	-9.6493
▁distribution	-9.64945
om	-9.64949
▁botswana	-9.64982
▁|	-9.65099
▁administrative	-9.65167
▁ban	-9.6546
+	-9.65472
▁settlement	-9.65489
▁songs	-9.65556
▁pope	-9.65635
▁display	-9.65644
▁armenian	-9.65655
ov	-9.65659
▁suggest	-9.65725
▁z	-9.65859
▁quickly	-9.65878
▁mark	-9.66025
▁aclu	-9.66074
▁spoken	-9.66115
let	-9.66152
berg	-9.66224
▁prize	-9.66245
▁branch	-9.66293
▁bishop	-9.66304
▁hot	-9.66333
▁medieval	-9.66391
▁price	-9.66424
▁village	-9.66434
▁heat	-9.66482
▁don	-9.66491
▁democratic	-9.66498
▁simply	-9.66511
▁spiritual	-9.66514
▁giving	-9.66589
22	-9.66695
▁necessary	-9.66737
not	-9.6678
▁whereas	-9.66859
▁engine	-9.66865
▁brand	-9.66874
▁birds	-9.66887
▁marked	-9.67087
▁spears	-9.67119
▁count	-9.67196
▁fell	-9.67225
▁atomic	-9.67364
gr	-9.67497
▁efforts	-9.67505
▁pass	-9.67603
▁regarded	-9.67644
▁staff	-9.67645
▁1930	-9.67678
head	-9.67729
ou	-9.67748
ious	-9.67751
▁digital	-9.67753
29	-9.67805
ud	-9.67839
▁library	-9.67873
war	-9.67896
▁refused	-9.67939
▁starting	-9.68016
▁immediately	-9.68157
|19	-9.68179
▁byzantine	-9.68195
▁overall	-9.68213
▁greatest	-9.68391
▁race	-9.68464
▁pair	-9.68528
zi	-9.68565
90	-9.68594
▁believe	-9.68629
▁officially	-9.68649
▁agreed	-9.68667
60	-9.68739
▁executive	-9.68792
▁attacks	-9.68831
▁models	-9.68894
▁sex	-9.68926
▁containing	-9.6897
▁course	-9.68992
▁leaving	-9.69023
▁jackson	-9.69033
▁creation	-9.6904
▁fa	-9.69152
▁told	-9.69186
24	-9.69192
log	-9.69275
dy	-9.6933
▁asked	-9.69364
▁presented	-9.69379
▁parties	-9.69387
▁article	-9.69449
ians	-9.69451
ox	-9.69529
ey	-9.69739
▁management	-9.69806
▁avoid	-9.69844
▁plays	-9.6986
▁purpose	-9.69871
▁dynasty	-9.69952
▁quarter	-9.69952
▁1996	-9.69968
▁bible	-9.69998
▁actually	-9.70047
ju	-9.70071
ging	-9.70092
▁inside	-9.70172
▁nasa	-9.70173
▁magazine	-9.70177
▁ordered	-9.70232
ative	-9.70265
▁frequently	-9.70297
▁opposed	-9.70317
▁cover	-9.70377
▁condition	-9.70412
▁stock	-9.70415
▁oldest	-9.70463
istic	-9.70509
▁break	-9.70509
▁reach	-9.70548
ai	-9.70595
▁bce	-9.70655
▁continue	-9.7071
ible	-9.70814
fe	-9.70839
▁martin	-9.70916
▁device	-9.70969
▁allows	-9.71017
85	-9.71026
▁leaders	-9.71058
▁agricultural	-9.71126
12	-9.71136
with	-9.71209
▁subsequent	-9.71218
▁spacecraft	-9.7122
▁kind	-9.71235
▁equipment	-9.71364
▁route	-9.71413
▁refers	-9.71488
▁pan	-9.71539
▁mountain	-9.71614
▁fully	-9.71694
";	-9.71749
▁humans	-9.71975
pho	-9.71991
▁devices	-9.72076
▁importance	-9.72077
▁[[	-9.72081
dic	-9.72097
▁faith	-9.721
che	-9.72101
▁principle	-9.72107
▁expressed	-9.72118
▁structures	-9.72147
26	-9.72187
gar	-9.72203
▁growing	-9.72274
▁critical	-9.7231
▁planned	-9.72322
▁showed	-9.72329
▁steel	-9.7233
▁unique	-9.72336
▁deep	-9.72359
▁vehicles	-9.72425
▁decades	-9.72471
▁31	-9.72496
▁cy	-9.72619
fer	-9.72654
▁income	-9.72702
don	-9.7284
side	-9.72859
▁expected	-9.72868
▁flow	-9.72885
ring	-9.72894
▁counter	-9.72923
▁rich	-9.73034
▁scale	-9.73088
▁nuclear	-9.73164
▁elections	-9.73256
99	-9.73304
▁lm	-9.73382
▁26	-9.73461
▁michael	-9.73515
tes	-9.73596
such	-9.73659
▁meeting	-9.73677
35	-9.73735
▁brussels	-9.73757
▁environment	-9.73777
▁combination	-9.73843
▁ya	-9.73923
ea	-9.73995
▁conference	-9.74001
af	-9.74074
▁aid	-9.74079
▁things	-9.74206
▁holy	-9.74255
now	-9.74285
ps	-9.74311
▁vote	-9.74314
▁instance	-9.74345
▁pay	-9.74346
▁abd	-9.74395
▁fuel	-9.74414
▁defeat	-9.74474
▁advantage	-9.74487
▁aristotle	-9.74487
▁scientists	-9.74572
▁alfred	-9.74584
▁extreme	-9.74615
▁awards	-9.74669
cre	-9.74693
▁auto	-9.74701
▁scotland	-9.74732
▁helped	-9.74748
▁com	-9.74901
▁convention	-9.7503
▁aramaic	-9.75086
▁dance	-9.7511
mb	-9.75117
wi	-9.75119
▁path	-9.75133
▁resources	-9.7515
▁drug	-9.75192
our	-9.75238
▁hu	-9.75318
▁solution	-9.75341
▁railway	-9.75356
▁sir	-9.75372
▁unlike	-9.75404
rid	-9.75457
▁supply	-9.75489
bu	-9.75492
▁institutions	-9.75601
▁round	-9.75688
▁afghan	-9.75688
▁completely	-9.75712
▁know	-9.75721
▁say	-9.75769
▁bra	-9.75774
▁airlines	-9.75799
▁connected	-9.75809
▁instruments	-9.75876
▁powerful	-9.75887
▁alliance	-9.75972
▁connect	-9.76131
▁keep	-9.76171
▁census	-9.76211
▁politics	-9.76211
▁arrived	-9.76266
▁versions	-9.76378
▁significantly	-9.76381
▁cold	-9.76418
cha	-9.76431
▁ru	-9.76433
▁solar	-9.76499
▁friend	-9.76503
▁27	-9.76526
av	-9.76565
▁29	-9.76763
32	-9.76788
▁differences	-9.76795
▁toward	-9.76816
▁blues	-9.76821
▁equivalent	-9.76848
▁grew	-9.76971
▁duke	-9.76981
▁card	-9.77094
nt	-9.77116
▁difference	-9.77208
▁solid	-9.77211
▁1997	-9.77227
▁occurs	-9.77236
▁write	-9.77244
95	-9.77342
36	-9.77391
▁computers	-9.77433
ep	-9.77461
▁negative	-9.77469
▁recently	-9.77478
▁1920	-9.77495
cy	-9.77503
ob	-9.77545
▁removed	-9.7755
▁mind	-9.77597
▁closed	-9.77633
sch	-9.77706
uk	-9.77708
▁attention	-9.77713
▁moving	-9.77715
well	-9.77773
▁establish	-9.7791
▁follows	-9.7797
ö	-9.78014
ec	-9.78022
▁wave	-9.78034
▁joseph	-9.78037
▁fi	-9.78061
▁silver	-9.78105
▁recognized	-9.78109
▁directed	-9.78131
▁opera	-9.78197
▁quality	-9.78219
▁ice	-9.78234
▁justice	-9.78235
▁acts	-9.78255
▁mathematical	-9.78281
▁defence	-9.78312
▁wanted	-9.7846
▁andrew	-9.78486
▁1994	-9.78488
▁determined	-9.78518
65	-9.78542
▁seat	-9.78548
▁fleet	-9.78551
▁fort	-9.78577
▁mono	-9.7866
▁contract	-9.78691
chi	-9.7871
▁attempted	-9.78758
▁expanded	-9.7887
▁powers	-9.78884
▁surrounding	-9.79021
▁buddhist	-9.79086
▁normal	-9.7914
▁awarded	-9.79203
▁playing	-9.79211
▁naval	-9.79249
▁stories	-9.79249
▁aluminium	-9.79494
work	-9.79605
air	-9.79658
▁metals	-9.79684
ct	-9.79692
▁writer	-9.797
▁drive	-9.79805
▁follow	-9.79816
▁combat	-9.79876
▁says	-9.79888
▁citizens	-9.79895
▁saying	-9.79915
lia	-9.7998
▁sought	-9.80009
▁liberal	-9.8001
▁ring	-9.80033
▁chain	-9.80063
▁factors	-9.80177
▁meant	-9.80191
▁focus	-9.80196
but	-9.80215
▁domestic	-9.80251
▁takes	-9.8027
▁shot	-9.80362
▁artist	-9.80441
▁step	-9.80526
▁ideal	-9.80578
▁tree	-9.80589
▁closely	-9.80589
▁gained	-9.80678
▁captured	-9.80733
▁tried	-9.80756
▁kept	-9.80792
▁relation	-9.80794
▁rare	-9.80798
▁describe	-9.80863
▁absolute	-9.80873
gu	-9.80878
▁winning	-9.8103
ris	-9.81048
▁za	-9.81065
known	-9.81074
▁cha	-9.81092
ji	-9.8112
▁dr	-9.81185
ves	-9.81271
13	-9.81287
▁bre	-9.81303
ub	-9.81353
ez	-9.81359
▁proved	-9.81408
▁astronauts	-9.81427
▁receive	-9.81458
▁relative	-9.81467
▁electric	-9.81488
▁des	-9.81501
nic	-9.81504
▁featured	-9.81567
▁1991	-9.81584
▁y	-9.8173
▁block	-9.81775
▁ireland	-9.81832
▁worldwide	-9.81853
▁wind	-9.81868
▁weeks	-9.81874
▁unknown	-9.81877
37	-9.81999
▁cycle	-9.82062
▁crown	-9.82109
▁$1	-9.82125
▁belief	-9.82141
▁minutes	-9.82145
▁inspired	-9.82199
gon	-9.82215
▁tank	-9.82251
▁wild	-9.82317
pu	-9.82322
▁respect	-9.82335
_3	-9.82359
▁perhaps	-9.82467
▁workers	-9.82475
▁sin	-9.82483
era	-9.82551
▁symbol	-9.8257
▁serve	-9.82612
▁studied	-9.82624
▁ammonia	-9.82624
▁split	-9.82629
▁broadcast	-9.82752
▁athena	-9.82759
act	-9.82793
▁ju	-9.82804
▁comes	-9.82856
▁require	-9.83002
▁build	-9.83041
▁bio	-9.83122
▁notes	-9.83144
▁universe	-9.83155
▁notably	-9.83284
▁affect	-9.83284
▁dedicated	-9.83422
▁succession	-9.83493
▁big	-9.83536
over	-9.8364
▁investment	-9.83696
mu	-9.83696
▁parallel	-9.83761
vis	-9.83781
pt	-9.83817
28	-9.83841
▁suggests	-9.83845
▁si	-9.83867
aw	-9.83872
port	-9.83897
mat	-9.83956
▁mc	-9.83959
▁hebrew	-9.84046
▁typical	-9.84082
▁running	-9.8416
▁spring	-9.8416
▁failure	-9.84228
ries	-9.84323
uc	-9.84379
izing	-9.84485
▁fighting	-9.84506
▁transfer	-9.84553
▁gives	-9.8456
▁ways	-9.8457
▁raised	-9.84601
gan	-9.84665
▁orthodox	-9.84713
78	-9.84774
tar	-9.84791
▁glass	-9.8481
▁damage	-9.84861
book	-9.84874
▁writings	-9.84884
▁tend	-9.85
▁soil	-9.85035
su	-9.85057
▁volume	-9.85059
ay	-9.85093
▁score	-9.85134
▁einstein	-9.8514
▁assyrian	-9.85142
fl	-9.85171
new	-9.85188
▁sister	-9.85194
▁possibly	-9.85198
qaeda	-9.85311
▁secondary	-9.85321
des	-9.85396
▁chi	-9.85457
▁albanian	-9.85542
▁specifically	-9.85612
▁austrian	-9.85651
▁room	-9.85656
▁+	-9.85719
▁perform	-9.85725
▁sales	-9.85731
han	-9.85769
▁increasingly	-9.85773
▁alabama	-9.85854
▁texas	-9.85854
oid	-9.85923
39	-9.85954
▁student	-9.85999
▁honor	-9.86036
ides	-9.86082
born	-9.86153
yan	-9.86157
▁debate	-9.86209
▁im	-9.86328
ble	-9.86342
gg	-9.86382
▁influential	-9.86403
▁bronx	-9.86403
▁1995	-9.86425
▁missile	-9.86569
▁canadian	-9.86584
▁khan	-9.8666
▁ashoka	-9.8668
▁interview	-9.86683
▁throne	-9.86687
ven	-9.86754
▁murder	-9.86807
▁austria	-9.86816
▁agent	-9.86838
▁effort	-9.86848
▁causes	-9.86887
▁reform	-9.86887
33	-9.86899
▁tribes	-9.86915
▁capacity	-9.86925
▁israel	-9.86926
▁standards	-9.86969
34	-9.87053
▁bodies	-9.87067
▁fine	-9.87135
▁arkansas	-9.87232
ari	-9.8724
▁voice	-9.8724
▁tv	-9.87291
▁protect	-9.8736
▁opening	-9.87365
▁basin	-9.87371
▁ruled	-9.87436
ations	-9.87468
▁joint	-9.87501
▁belgium	-9.87509
ev	-9.87522
▁master	-9.87541
▁indigenous	-9.87553
▁marine	-9.87565
▁extensive	-9.87644
▁environmental	-9.87646
▁secret	-9.87665
▁destroyed	-9.87672
–20	-9.87693
▁sum	-9.87756
bal	-9.87781
▁mixed	-9.87782
23	-9.87868
▁ab	-9.87881
▁fight	-9.87943
▁conducted	-9.87991
▁mac	-9.88022
▁shortly	-9.88062
▁shape	-9.88065
▁abortion	-9.88156
▁aphrodite	-9.88195
▁cr	-9.88224
ng	-9.88335
▁expedition	-9.88347
▁invasion	-9.88347
ica	-9.88394
▁horse	-9.88437
▁farm	-9.88503
▁brown	-9.88509
▁etc	-9.88512
▁send	-9.88555
ik	-9.88564
top	-9.88584
▁herzegovina	-9.88628
▁literary	-9.88628
▁visited	-9.8864
most	-9.88645
▁1992	-9.88647
▁issued	-9.8867
ek	-9.88716
▁alone	-9.8878
▁gar	-9.88825
▁sets	-9.88845
▁situation	-9.88859
▁obtained	-9.88897
▁gdp	-9.88927
▁1993	-9.88928
▁experiment	-9.88953
▁discovery	-9.88957
▁core	-9.88972
▁mi	-9.88994
▁colonial	-9.89063
▁threat	-9.89091
▁pop	-9.89116
_1	-9.89175
▁labour	-9.89194
▁descent	-9.89198
▁amazon	-9.89279
▁traditionally	-9.89322
back	-9.89326
▁positions	-9.89424
▁format	-9.89532
▁week	-9.89598
°	-9.89678
from	-9.89698
▁artillery	-9.8976
▁netherlands	-9.8976
▁search	-9.89781
19	-9.89799
▁settled	-9.89825
▁assault	-9.89826
▁sh	-9.8983
▁principal	-9.89872
▁covered	-9.89908
▁generation	-9.89914
▁traditions	-9.89938
▁stable	-9.89941
▁poem	-9.89993
▁islam	-9.90008
anti	-9.90035
▁historically	-9.90091
ok	-9.90128
▁something	-9.90145
ville	-9.90151
ned	-9.90185
▁month	-9.90306
▁express	-9.90325
▁mathematics	-9.90331
▁colony	-9.90366
▁output	-9.90372
▁hop	-9.90403
ang	-9.90526
▁ac	-9.90531
▁competition	-9.90611
▁composition	-9.90615
▁introduction	-9.90621
▁franklin	-9.90626
▁criticism	-9.90633
▁aberdeen	-9.9067
▁authors	-9.90672
▁christianity	-9.90705
▁reading	-9.90724
▁golden	-9.9082
▁converted	-9.90822
▁sal	-9.90846
▁columbia	-9.90901
▁doctrine	-9.90904
▁cancer	-9.90964
▁anxiety	-9.90974
▁intelligence	-9.90985
▁leave	-9.90994
▁slavery	-9.91065
▁slaves	-9.91086
▁spirit	-9.9111
-2	-9.91144
▁fair	-9.9116
▁amiga	-9.9117
▁artemis	-9.91193
▁description	-9.91204
▁leadership	-9.9121
▁context	-9.91211
▁stress	-9.91218
ane	-9.91283
▁skin	-9.91311
▁views	-9.91386
▁survey	-9.91408
▁sport	-9.91414
▁mu	-9.91444
▁adelaide	-9.91482
▁felt	-9.91492
▁births	-9.91501
▁bond	-9.91519
▁similarly	-9.91581
▁sequence	-9.91582
▁zone	-9.91603
▁dry	-9.91622
▁paid	-9.91719
▁entirely	-9.9172
▁strength	-9.9173
▁shared	-9.91777
▁senate	-9.91787
▁meet	-9.91815
▁boron	-9.91859
▁succeeded	-9.91915
▁serious	-9.91923
▁motor	-9.91927
▁developing	-9.92017
▁ke	-9.92052
▁taught	-9.92068
▁application	-9.92089
▁bomb	-9.92273
type	-9.92297
term	-9.92406
par	-9.92437
▁popularity	-9.92485
-19	-9.92599
ken	-9.92609
▁mag	-9.92622
▁accept	-9.92643
▁turkey	-9.92648
▁brunei	-9.92649
▁professor	-9.92655
dr	-9.92685
▁user	-9.92694
▁fields	-9.92702
▁easily	-9.92939
▁external	-9.92939
▁slightly	-9.92975
▁ja	-9.93131
res	-9.93132
▁academic	-9.93132
67	-9.93136
▁temperatures	-9.93199
quite	-9.93218
▁os	-9.93232
▁ali	-9.93259
▁mediterranean	-9.93283
98	-9.93308
38	-9.93356
kh	-9.93367
▁km	-9.9345
dor	-9.93455
pre	-9.93491
|20	-9.93496
97	-9.93521
▁disraeli	-9.93528
▁ajax	-9.9353
▁sciences	-9.93532
▁southeast	-9.93555
▁fifth	-9.93652
▁friends	-9.93656
▁folk	-9.93673
▁electrons	-9.937
▁fiction	-9.93825
▁background	-9.93832
▁address	-9.93866
▁think	-9.93904
▁plans	-9.93917
▁useful	-9.9397
96	-9.93989
▁link	-9.94077
ified	-9.94081
▁asian	-9.94091
ani	-9.94121
▁creating	-9.94125
▁track	-9.9419
31	-9.94224
▁myth	-9.94233
▁op	-9.94275
▁mobile	-9.94328
▁60	-9.94352
▁universal	-9.94372
▁components	-9.94417
▁desert	-9.94428
▁nearby	-9.94467
▁kings	-9.94484
▁visual	-9.94573
▁instrument	-9.94579
▁imp	-9.94632
▁let	-9.94655
▁understanding	-9.94695
▁jo	-9.94703
▁edward	-9.9472
tt	-9.94731
▁ver	-9.94779
▁stop	-9.94806
comp	-9.94814
largely	-9.9483
▁historians	-9.94847
▁reports	-9.94924
▁lay	-9.94926
▁goal	-9.94938
▁mode	-9.94947
▁mor	-9.94947
▁ge	-9.94974
01	-9.95002
▁ministry	-9.95017
▁providing	-9.95017
▁edition	-9.95129
▁rejected	-9.95159
▁connection	-9.95166
▁screen	-9.95172
▁achieved	-9.95239
▁heritage	-9.95317
ini	-9.95318
▁daily	-9.9532
▁conquest	-9.95324
▁projects	-9.95334
▁controlled	-9.9536
▁usage	-9.95433
▁amino	-9.95593
▁causing	-9.95619
▁1969	-9.95638
▁appeal	-9.95707
rate	-9.95756
-1	-9.95872
▁inhabitants	-9.95921
▁cars	-9.95933
▁ri	-9.9596
▁2012	-9.95991
▁fixed	-9.96034
▁runs	-9.96061
tr	-9.96153
▁frank	-9.96218
▁traffic	-9.96223
▁heavily	-9.96223
▁hardware	-9.96228
▁carry	-9.96253
▁speak	-9.9627
ites	-9.9627
▁acquired	-9.96277
▁tourism	-9.96286
▁2014	-9.96288
▁manager	-9.96299
▁alkali	-9.96299
▁dark	-9.96336
ros	-9.96338
▁factor	-9.96349
▁statement	-9.96396
▁producing	-9.96453
▁linear	-9.96464
lam	-9.965
▁slave	-9.9652
tan	-9.96522
▁liquid	-9.96527
▁stadium	-9.96832
66	-9.9684
ren	-9.9686
▁actions	-9.96868
▁broad	-9.96895
▁technique	-9.9699
hr	-9.97142
mit	-9.97168
▁trees	-9.97208
▁ti	-9.97254
▁pacific	-9.97258
▁publication	-9.97258
▁cat	-9.97259
cl	-9.9736
▁statistics	-9.9737
sis	-9.97385
▁albania	-9.97435
▁classification	-9.97454
▁teaching	-9.97471
ants	-9.97515
▁dialects	-9.97543
mann	-9.97595
▁lands	-9.97616
▁critics	-9.97639
▁users	-9.97658
▁engineering	-9.97674
▁hands	-9.97675
▁jesus	-9.97753
net	-9.97781
▁listed	-9.97885
▁programming	-9.97898
59	-9.979
▁angle	-9.97903
▁improved	-9.97942
▁fear	-9.98061
non	-9.9809
▁concluded	-9.98099
▁arms	-9.98119
ean	-9.98136
house	-9.98142
tis	-9.98164
dis	-9.9831
▁organizations	-9.9837
▁montgomery	-9.9837
▁husband	-9.98371
▁virgin	-9.98442
▁measure	-9.98482
▁existing	-9.98538
▁2012,	-9.98576
▁holding	-9.98581
▁determine	-9.98619
▁offer	-9.98621
ax	-9.98677
▁reasons	-9.98698
wood	-9.98708
▁rapid	-9.98717
▁weapons	-9.98803
ile	-9.98858
▁cor	-9.98888
▁employed	-9.98899
53	-9.98915
▁ratio	-9.98918
74	-9.98927
▁dialect	-9.98968
▁del	-9.98983
▁legacy	-9.98993
▁ultimately	-9.9903
▁slow	-9.99131
▁chemistry	-9.99172
92	-9.99179
▁seems	-9.99183
▁neo	-9.99199
▁towns	-9.99223
▁zero	-9.99248
▁historic	-9.99274
▁cuisine	-9.99305
▁mexico	-9.99305
▁bow	-9.99318
▁sons	-9.99444
_2	-9.99465
▁polish	-9.99472
▁contained	-9.99473
▁amd	-9.99552
69	-9.99604
▁describes	-9.99605
▁ku	-9.99646
bb	-9.99665
▁behavior	-9.99697
▁abba	-9.9971
▁particles	-9.99717
▁beer	-9.99744
▁newly	-9.99774
▁trial	-9.9978
▁granted	-9.99796
93	-9.99828
▁augustus	-9.99852
▁circuit	-9.99933
▁technical	-9.99937
▁portion	-9.99952
▁identify	-9.99982
ban	-10.0003
▁2014,	-10.0013
▁string	-10.0013
▁2021,	-10.0013
▁continental	-10.002
▁facilities	-10.0025
47	-10.0026
▁internet	-10.0026
▁1972	-10.0027
79	-10.0027
▁setting	-10.0028
▁attempts	-10.0029
▁plot	-10.0031
sur	-10.0031
state	-10.0032
▁bus	-10.0041
ft	-10.0043
▁practices	-10.0044
84	-10.0045
▁concentration	-10.0051
▁organized	-10.0056
volving	-10.0057
▁grow	-10.0059
▁chosen	-10.0064
▁improve	-10.0066
▁apparent	-10.0074
▁advance	-10.0078
▁essential	-10.0086
▁scott	-10.0088
▁1989	-10.009
▁belarus	-10.0091
▁1940	-10.0092
▁experiments	-10.0092
89	-10.0094
▁iv	-10.0108
ker	-10.0111
qu	-10.0123
ular	-10.0125
▁successor	-10.0129
▁transportation	-10.0129
lon	-10.0133
▁drugs	-10.0138
▁arch	-10.0138
tur	-10.014
68	-10.014
ada	-10.0144
▁rose	-10.0145
▁va	-10.0145
ese	-10.0148
▁personnel	-10.0152
▁uniform	-10.0152
ery	-10.016
▁em	-10.0168
▁affected	-10.0175
ita	-10.0176
called	-10.0184
▁advertising	-10.0184
▁nevertheless	-10.0184
▁genetic	-10.0184
tz	-10.0188
▁constructed	-10.0206
▁look	-10.0209
▁plus	-10.0214
▁translation	-10.0215
▁medium	-10.0217
ida	-10.022
▁algorithm	-10.0225
pan	-10.0227
83	-10.0227
▁thousands	-10.0233
▁scottish	-10.0234
▁republican	-10.0245
▁studio	-10.0248
▁widespread	-10.0248
cal	-10.0249
▁mount	-10.0249
▁stay	-10.0258
▁weak	-10.0259
ford	-10.0259
49	-10.0262
▁christians	-10.0266
▁2,	-10.0278
▁begin	-10.0281
▁residents	-10.0283
law	-10.0283
life	-10.0285
je	-10.0288
din	-10.0291
▁criminal	-10.0293
1,	-10.0293
▁tar	-10.0293
▁vast	-10.0294
▁rivers	-10.0299
▁ranked	-10.0305
▁proper	-10.0307
▁request	-10.0314
▁attract	-10.0317
▁ago	-10.032
▁severe	-10.0323
ions	-10.0323
▁min	-10.0325
▁selected	-10.0334
bre	-10.0334
▁protestant	-10.0345
right	-10.0346
▁arsenic	-10.0346
87	-10.0346
▁differ	-10.035
▁attributed	-10.0351
▁broke	-10.0358
are	-10.036
▁ainu	-10.0365
▁et	-10.0366
▁fe	-10.0375
▁bermuda	-10.0379
▁muhammad	-10.0379
75	-10.038
▁provinces	-10.0381
▁algebraic	-10.0382
cul	-10.0383
▁passage	-10.0383
64	-10.0386
rt	-10.0387
▁sky	-10.0388
▁har	-10.0391
len	-10.0392
low	-10.0392
▁rain	-10.0394
isation	-10.04
▁carrier	-10.0403
▁rates	-10.041
▁1974	-10.0413
▁ben	-10.0417
▁32	-10.042
▁shift	-10.0426
▁aol	-10.0435
76	-10.0437
▁che	-10.0441
▁interior	-10.0444
▁sam	-10.0448
▁scholar	-10.0448
ula	-10.0449
▁stand	-10.0457
▁classic	-10.0459
▁(20	-10.046
med	-10.0464
ray	-10.0469
▁communication	-10.0482
▁championship	-10.0483
▁processes	-10.0484
▁frequency	-10.0486
▁vary	-10.0488
ches	-10.0494
▁bulgarian	-10.0499
uch	-10.0502
▁rail	-10.0503
88	-10.0505
▁extent	-10.051
▁braille	-10.0511
ase	-10.0519
▁separated	-10.0523
▁guns	-10.0527
▁net	-10.0531
ration	-10.0535
▁identity	-10.0544
▁box	-10.0549
water	-10.0551
including	-10.0554
▁mon	-10.0554
45	-10.0559
▁kh	-10.0563
▁learning	-10.057
ice	-10.0571
▁bal	-10.0576
▁philosophers	-10.0576
▁extension	-10.0577
▁crowley	-10.0577
▁pen	-10.058
▁experienced	-10.058
ans	-10.0583
55	-10.0589
▁forward	-10.059
▁draw	-10.0594
▁fl	-10.0598
van	-10.0598
ix	-10.061
▁enter	-10.0611
▁additionally	-10.0613
▁roughly	-10.0616
▁benefit	-10.0619
▁sample	-10.062
▁nazi	-10.0623
▁ran	-10.0629
▁researchers	-10.0635
▁80	-10.0637
73	-10.0641
▁interface	-10.0644
▁disk	-10.0645
▁capable	-10.0647
▁maintain	-10.0647
▁wales	-10.0651
▁hal	-10.0659
▁argument	-10.0664
54	-10.0664
▁poll	-10.0666
▁affairs	-10.0671
▁speakers	-10.0677
▁worship	-10.0677
▁maintained	-10.0678
▁abc	-10.0679
▁younger	-10.0679
▁theories	-10.068
▁1968	-10.068
▁warhol	-10.0682
▁mary	-10.0684
▁noble	-10.0686
72	-10.0688
▁gra	-10.069
▁chamber	-10.0693
▁synthesis	-10.0707
ids	-10.0709
▁boston	-10.0712
▁ages	-10.0712
▁maximum	-10.0712
▁foot	-10.0716
▁founder	-10.0718
▁variable	-10.0723
▁decade	-10.0725
▁exception	-10.0725
▁promote	-10.0726
▁occupied	-10.073
▁parents	-10.0732
▁cal	-10.074
▁secretary	-10.0747
▁angeles	-10.0751
▁twenty	-10.0754
ola	-10.0763
▁violence	-10.0763
▁pin	-10.0767
ological	-10.0773
▁anchor	-10.0778
▁authorities	-10.0782
▁houses	-10.0783
▁orders	-10.0786
▁designated	-10.0786
▁gods	-10.0788
▁suffered	-10.079
▁gates	-10.0796
▁stations	-10.0796
az	-10.0798
2.	-10.0799
▁soul	-10.0802
tin	-10.0803
▁(),	-10.0804
▁agassi	-10.0814
▁considerable	-10.0819
▁articles	-10.0821
also	-10.0824
▁hundred	-10.0828
2"	-10.0832
cent	-10.0833
▁los	-10.0834
▁progress	-10.0841
▁extra	-10.0845
▁strategy	-10.0848
▁copper	-10.0849
▁flat	-10.0852
tus	-10.0853
▁plane	-10.0855
▁managed	-10.0857
▁alfonso	-10.0861
▁nothing	-10.0861
▁seats	-10.0866
▁pakistan	-10.0867
▁mer	-10.087
duc	-10.0874
▁mere	-10.0877
▁tower	-10.0881
▁strip	-10.0883
rac	-10.0887
▁eye	-10.089
▁radical	-10.0892
▁density	-10.0895
▁print	-10.0896
speaking	-10.0897
town	-10.0897
nder	-10.0903
▁going	-10.0911
ó	-10.0911
ala	-10.0916
▁allied	-10.0918
▁1984	-10.0919
▁app	-10.092
▁scene	-10.092
▁online	-10.0922
09	-10.0925
▁von	-10.0927
▁confirmed	-10.093
▁bluetooth	-10.0932
ress	-10.0934
▁onto	-10.0937
▁fellow	-10.0938
sha	-10.0946
▁favor	-10.0946
▁ānanda	-10.0951
▁burkina	-10.0951
▁revolt	-10.0952
▁1977	-10.0953
▁revealed	-10.0972
▁officers	-10.098
▁becomes	-10.0981
▁greatly	-10.0983
▁dominant	-10.0986
▁agency	-10.0986
▁treated	-10.0986
▁gulf	-10.0987
▁concert	-10.0988
▁georgia	-10.0995
▁walls	-10.0996
dra	-10.1005
.5%	-10.1008
ping	-10.1011
▁requires	-10.1012
▁theorem	-10.1022
▁1971	-10.1023
94	-10.1023
▁ibm	-10.1023
▁alongside	-10.1024
▁bat	-10.1025
▁lee	-10.1028
▁electrical	-10.1031
▁chicago	-10.1031
▁strongly	-10.1031
row	-10.1033
▁hindu	-10.1034
▁die	-10.1036
▁prepared	-10.1041
▁burn	-10.1042
ill	-10.1044
▁bass	-10.1045
▁plate	-10.1046
▁tomb	-10.1046
▁confederate	-10.1056
▁fought	-10.1056
▁neither	-10.1056
▁irish	-10.1057
jo	-10.1058
iz	-10.1058
▁physics	-10.1067
▁limit	-10.1068
▁pure	-10.1069
▁actual	-10.1078
▁fast	-10.1079
▁northwest	-10.1079
▁continent	-10.108
oli	-10.1083
▁universities	-10.1091
▁1975	-10.1093
ual	-10.1095
05	-10.1097
▁bor	-10.1118
▁200	-10.1123
▁hitchcock	-10.1126
▁investigation	-10.1126
▁schwarzenegger	-10.1126
▁array	-10.1127
▁domain	-10.1128
▁medal	-10.1128
▁christie	-10.1129
mus	-10.113
▁colour	-10.1137
▁muslims	-10.1138
▁constitutional	-10.114
▁branches	-10.1142
▁coming	-10.1143
dia	-10.1143
free	-10.1145
▁bad	-10.1146
▁treat	-10.1152
▁note	-10.1154
bra	-10.1156
▁sultan	-10.1158
▁missions	-10.1158
▁operated	-10.1159
▁crisis	-10.1161
▁infantry	-10.1162
77	-10.1163
▁1986	-10.1165
▁pitch	-10.1166
▁youth	-10.1167
ire	-10.1168
west	-10.1169
63	-10.117
ney	-10.1172
cle	-10.118
300	-10.1182
▁contributed	-10.1185
▁pattern	-10.1186
▁acting	-10.1192
▁philosophical	-10.1197
▁kabul	-10.1198
▁charged	-10.1198
▁binary	-10.1198
▁emerged	-10.1202
48	-10.1203
ino	-10.121
▁dam	-10.1211
▁approved	-10.1213
▁sto	-10.1215
set	-10.1218
ification	-10.1222
▁fer	-10.1224
▁sand	-10.1225
▁understood	-10.1232
▁chapter	-10.1233
▁belize	-10.1233
cu	-10.1233
▁channel	-10.1234
▁otherwise	-10.1238
–18	-10.1245
ew	-10.1253
cur	-10.1254
ug	-10.1257
▁arc	-10.1258
▁classes	-10.126
▁expression	-10.1263
▁hi	-10.1264
▁phrase	-10.1268
▁obtain	-10.127
▁gen	-10.1275
▁hero	-10.1277
▁adapted	-10.128
▁crime	-10.1296
▁tele	-10.13
▁got	-10.1303
▁enemy	-10.1304
ash	-10.1304
▁modified	-10.1304
▁narrow	-10.1304
▁1985	-10.1307
▁dates	-10.1308
▁presidential	-10.131
▁allies	-10.131
▁lowest	-10.1311
▁accounts	-10.1312
▁input	-10.1326
▁supporting	-10.1328
▁want	-10.1332
▁transition	-10.1332
▁join	-10.1334
▁pain	-10.1335
mm	-10.1336
▁conservative	-10.1339
▁portugal	-10.134
▁intellectual	-10.134
▁philip	-10.1344
▁caribbean	-10.1346
▁kill	-10.1346
rr	-10.1348
▁ch	-10.135
▁decline	-10.1357
▁indicate	-10.1361
▁capture	-10.1366
▁corporation	-10.137
dd	-10.1373
▁carnegie	-10.1376
▁varieties	-10.1376
▁wallace	-10.1376
▁fo	-10.1378
▁disc	-10.138
▁prayer	-10.1393
extremely	-10.1393
▁35	-10.1397
▁fundamental	-10.1398
run	-10.14
▁planet	-10.1402
_4	-10.1402
▁officials	-10.1408
▁unable	-10.1408
▁orange	-10.1414
▁aspects	-10.1416
▁somewhat	-10.1417
hen	-10.1418
▁inner	-10.1423
ku	-10.1425
▁owned	-10.1432
▁conventional	-10.1441
▁demand	-10.1443
cher	-10.1443
▁peninsula	-10.1449
▁maria	-10.1451
ram	-10.1454
▁mention	-10.1455
vel	-10.1455
▁baptist	-10.1458
▁classified	-10.1466
▁resolution	-10.1467
▁correct	-10.1483
▁task	-10.1483
▁atmosphere	-10.1485
▁infrastructure	-10.1485
▁anthem	-10.1487
▁1988	-10.149
▁twelve	-10.1494
star	-10.1498
▁frame	-10.1501
▁bangladesh	-10.1503
▁algebra	-10.1512
▁electronic	-10.1514
▁buffalo	-10.1516
cc	-10.1518
▁selection	-10.1526
$	-10.1527
that	-10.1538
▁stream	-10.1543
wan	-10.1544
▁arm	-10.1545
▁images	-10.1549
▁telephone	-10.1559
▁interpretation	-10.1559
ura	-10.1564
▁offering	-10.1572
▁represents	-10.1573
▁turkish	-10.1573
▁reactions	-10.1574
▁newton	-10.1578
▁characteristics	-10.1579
▁lives	-10.1582
▁testing	-10.1583
▁deco	-10.1589
▁mouth	-10.1594
▁safety	-10.1596
dom	-10.1598
▁1966	-10.1598
▁ada	-10.16
▁edge	-10.16
▁bound	-10.1603
▁talk	-10.1608
▁tea	-10.1608
▁organic	-10.1611
▁angola	-10.1613
▁normally	-10.1617
▁brothers	-10.1618
▁ser	-10.1623
▁cap	-10.1624
▁calls	-10.1626
▁coastal	-10.1626
yn	-10.1629
▁manufacturing	-10.1632
▁reduction	-10.1632
▁component	-10.1633
▁leaves	-10.1633
▁vocal	-10.1633
▁conversion	-10.1633
▁opposite	-10.1633
▁sar	-10.1653
llowing	-10.1656
91	-10.1658
▁communist	-10.166
pos	-10.1665
▁fresnel	-10.167
▁diverse	-10.167
▁armies	-10.1671
▁audience	-10.1673
▁dna	-10.1679
cri	-10.1681
▁iran	-10.1685
▁bit	-10.1687
▁train	-10.1688
▁measured	-10.1693
▁audio	-10.1695
▁cable	-10.17
▁turing	-10.1702
▁jack	-10.1702
vers	-10.1707
▁why	-10.1709
▁picture	-10.1709
▁gradually	-10.1711
▁sides	-10.1717
▁brazilian	-10.1718
cho	-10.1718
▁founding	-10.1719
▁finished	-10.1721
▁evolution	-10.1721
▁attacked	-10.1726
▁stra	-10.1731
▁analog	-10.1734
▁goddess	-10.1734
▁novels	-10.1736
▁hence	-10.1739
aries	-10.1739
▁principles	-10.1739
who	-10.174
▁exists	-10.174
▁killing	-10.1749
▁snow	-10.175
▁manner	-10.1751
val	-10.1751
▁jobs	-10.1753
▁ty	-10.1756
▁translated	-10.1759
▁rapidly	-10.1762
▁symptoms	-10.1764
gate	-10.1764
α	-10.1771
▁corresponding	-10.1773
▁memorial	-10.1782
▁archbishop	-10.1782
▁geometry	-10.1782
▁index	-10.1784
▁forming	-10.1788
▁ap	-10.1788
burg	-10.1789
▁assumed	-10.1792
▁category	-10.1794
82	-10.1797
ata	-10.1799
▁graphics	-10.1815
42	-10.1817
▁approval	-10.182
▁divine	-10.182
▁1983	-10.1822
▁drawing	-10.1828
▁celebrated	-10.1829
▁origins	-10.184
pri	-10.1845
▁molecules	-10.1846
▁headquarters	-10.1858
▁vector	-10.1858
use	-10.186
▁evolved	-10.187
▁abandoned	-10.1871
nia	-10.1882
place	-10.1886
▁producer	-10.1886
2,	-10.1889
▁communications	-10.189
▁shell	-10.1896
▁copies	-10.1896
▁1982	-10.1898
▁implementation	-10.1902
06	-10.1903
tel	-10.1911
▁courts	-10.1917
▁clubs	-10.192
▁practical	-10.1923
▁proportion	-10.1927
gy	-10.1927
▁recording	-10.1927
▁lies	-10.1929
▁budget	-10.1934
▁buried	-10.1934
▁faso	-10.1935
▁1987	-10.1936
▁drama	-10.1937
light	-10.1942
mor	-10.1944
▁increases	-10.1944
71	-10.1948
gue	-10.195
rus	-10.1951
▁experimental	-10.1956
part	-10.1957
oma	-10.1967
▁bronze	-10.1972
▁react	-10.1972
mark	-10.1976
▁attended	-10.1978
ath	-10.1979
▁ending	-10.1979
▁philosopher	-10.1982
ably	-10.1986
▁bear	-10.1991
▁focused	-10.1994
▁theater	-10.2002
arian	-10.2008
▁poverty	-10.2011
▁zeus	-10.2015
▁dating	-10.2028
▁desire	-10.203
▁dominated	-10.2032
▁bur	-10.2046
▁trip	-10.2047
▁para	-10.2048
▁etymology	-10.2049
▁honour	-10.2049
▁decay	-10.2049
▁successfully	-10.2051
lan	-10.2056
vin	-10.206
▁candidate	-10.2061
▁compound	-10.2061
▁ion	-10.2061
8"	-10.2062
▁pieces	-10.2067
▁actor	-10.207
▁roads	-10.2072
nce	-10.208
▁protein	-10.2081
▁fu	-10.2085
▁add	-10.2087
▁senior	-10.2088
▁radiation	-10.2089
▁biological	-10.2089
▁permanent	-10.209
qua	-10.209
▁adding	-10.2091
▁credit	-10.2093
▁viewed	-10.2093
▁craft	-10.2095
▁styles	-10.2096
▁movie	-10.2101
▁70	-10.2105
▁logic	-10.2107
▁variations	-10.2121
9"	-10.2122
44	-10.2123
▁comparison	-10.2127
hal	-10.2127
▁argues	-10.2129
▁officer	-10.2131
ano	-10.2138
▁adult	-10.2142
▁paintings	-10.2149
▁aspirin	-10.2151
▁incorporated	-10.2153
▁mayor	-10.2155
▁seek	-10.2163
tre	-10.2165
accompanied	-10.2166
▁recognition	-10.2166
▁storage	-10.2166
▁abraham	-10.2166
▁1976	-10.2168
▁jean	-10.2173
dar	-10.2174
▁designs	-10.2175
▁nobel	-10.2178
▁ascii	-10.2179
▁layer	-10.2181
▁reflect	-10.2182
▁linguistic	-10.2183
▁representation	-10.219
ich	-10.2202
▁root	-10.2203
▁holds	-10.2215
▁patients	-10.2225
▁fame	-10.2234
mel	-10.2235
▁twice	-10.2244
▁weather	-10.2244
▁essay	-10.2244
▁visible	-10.2245
▁achilles	-10.2248
▁acupuncture	-10.2249
▁check	-10.2257
ates	-10.2258
▁characteristic	-10.2264
▁estate	-10.2268
[	-10.2273
▁abbey	-10.2284
▁debt	-10.2284
▁poetry	-10.2286
▁truth	-10.2288
▁salt	-10.2289
▁painting	-10.2293
ama	-10.2294
▁consul	-10.2296
bert	-10.2298
▁ray	-10.2299
▁fly	-10.2307
▁prisoners	-10.231
▁showing	-10.2316
ture	-10.2316
3"	-10.2319
▁web	-10.2321
stra	-10.2321
▁(1	-10.2321
▁kurosawa	-10.2324
▁bottom	-10.2324
onic	-10.2324
▁flag	-10.2325
▁runner	-10.2325
bro	-10.2329
▁purposes	-10.2329
56	-10.2329
ever	-10.233
▁shi	-10.2334
▁missiles	-10.234
▁thousand	-10.2343
▁chart	-10.2348
board	-10.235
▁processing	-10.2352
▁den	-10.2358
ball	-10.2363
▁rural	-10.2365
▁poland	-10.2367
▁formally	-10.2368
arch	-10.2368
▁sha	-10.2371
illa	-10.2379
▁apply	-10.2381
▁pilot	-10.2385
81	-10.2386
▁establishment	-10.2388
▁sell	-10.2393
▁poet	-10.2398
▁soft	-10.2399
▁boy	-10.24
▁produces	-10.2403
▁captain	-10.2403
▁invented	-10.2404
▁500	-10.2407
eu	-10.2413
▁gi	-10.2413
▁capp	-10.2414
ect	-10.2418
▁row	-10.2421
▁gr	-10.2423
▁serving	-10.2424
▁leg	-10.2425
▁fund	-10.2429
▁effectively	-10.2432
ges	-10.2439
▁axiom	-10.2439
▁policies	-10.2444
▁zealand	-10.2444
▁amateur	-10.2444
▁journal	-10.2445
▁vision	-10.2453
rat	-10.2454
▁°	-10.2458
▁therapy	-10.2458
▁cards	-10.2466
▁rocket	-10.2475
▁piece	-10.2477
bri	-10.248
07	-10.2483
▁mormon	-10.2485
gal	-10.2486
▁1967	-10.2487
▁dual	-10.249
fo	-10.2496
▁goods	-10.2496
▁aarhus	-10.2498
▁mental	-10.2505
▁declined	-10.2506
ara	-10.2507
hand	-10.2507
▁manuscript	-10.2508
▁canon	-10.2517
▁eva	-10.2518
▁rebellion	-10.2524
▁mixture	-10.2525
▁assistance	-10.2525
▁artistic	-10.2529
▁hunting	-10.2533
▁er	-10.254
far	-10.2543
51	-10.2544
▁buy	-10.2545
▁achieve	-10.2547
▁brief	-10.2551
▁disorder	-10.2551
▁rand	-10.2552
▁batter	-10.2554
▁ill	-10.2554
▁col	-10.2556
▁bacteria	-10.2559
▁distinguish	-10.2563
▁sk	-10.2564
▁emphasis	-10.2565
▁poirot	-10.2565
▁reputation	-10.2565
▁vertical	-10.2566
▁1981	-10.2567
▁continues	-10.2567
▁nitrogen	-10.2573
▁characterized	-10.2575
▁assigned	-10.2576
▁partly	-10.2579
52	-10.2579
▁measures	-10.258
▁escape	-10.2586
1"	-10.2589
rin	-10.2601
▁platform	-10.2602
▁antibiotics	-10.2607
▁bu	-10.261
▁64	-10.2611
▁linked	-10.2612
▁(17	-10.2613
▁biblical	-10.2616
▁guitar	-10.2619
bs	-10.262
02	-10.2623
▁ki	-10.2624
▁survive	-10.2627
▁ruler	-10.2631
rom	-10.2637
▁bird	-10.2641
▁yield	-10.2641
▁pioneer	-10.2647
▁preferred	-10.2648
▁needs	-10.2652
▁bede	-10.2662
▁amber	-10.2667
sp	-10.2669
▁wars	-10.267
▁ci	-10.2681
▁fr	-10.2684
▁regime	-10.2688
▁quantum	-10.2688
▁reducing	-10.2688
aga	-10.2689
some	-10.2693
▁none	-10.2698
▁distinction	-10.2698
▁accused	-10.27
▁airline	-10.27
sta	-10.2701
▁jerusalem	-10.2704
graph	-10.2705
yo	-10.2706
▁floor	-10.2707
▁survived	-10.2708
nu	-10.2709
04	-10.271
▁rarely	-10.2711
cus	-10.2711
nik	-10.2714
▁matches	-10.2717
▁error	-10.2718
!"	-10.2724
▁satellite	-10.2729
4"	-10.273
▁1945	-10.2732
▁spot	-10.2735
2)	-10.2736
▁pick	-10.2741
ong	-10.2742
▁plato	-10.2743
eus	-10.275
▁reaching	-10.2759
▁superior	-10.2768
▁ger	-10.2769
▁anglo	-10.277
▁explanation	-10.2771
▁protocol	-10.2771
▁terminal	-10.2771
▁virginia	-10.2772
▁hair	-10.2773
▁exercise	-10.2782
▁generated	-10.279
▁mal	-10.279
▁decrease	-10.2793
▁tools	-10.2793
▁bases	-10.2795
tern	-10.2795
▁involves	-10.2799
▁ants	-10.28
▁proteins	-10.28
▁wealth	-10.28
61	-10.2802
▁newspaper	-10.2803
▁programme	-10.2807
▁attend	-10.2812
▁consumption	-10.2813
▁migration	-10.2813
▁renamed	-10.2814
!	-10.282
▁references	-10.2821
▁protected	-10.2822
▁pet	-10.2824
ward	-10.2824
pla	-10.2827
▁notion	-10.2834
▁originated	-10.2836
.4%	-10.2841
lar	-10.2845
ille	-10.2848
▁exhibit	-10.2854
▁arrival	-10.2854
▁campus	-10.2855
ory	-10.2857
▁1979	-10.2857
▁apart	-10.2858
▁partner	-10.2859
▁banks	-10.286
▁highway	-10.2861
▁percentage	-10.2861
▁file	-10.2861
▁statistical	-10.2862
▁movements	-10.2883
▁gel	-10.2886
▁massoud	-10.2896
▁armoured	-10.2898
german	-10.2903
▁beryllium	-10.2904
▁vowel	-10.2907
▁epi	-10.291
pat	-10.2911
bur	-10.2912
▁details	-10.2921
▁der	-10.2927
rie	-10.2937
▁editor	-10.2938
▁amphetamine	-10.2939
▁opportunity	-10.2939
▁animation	-10.2939
▁voting	-10.294
▁peak	-10.2944
▁winners	-10.2946
scale	-10.2952
▁guard	-10.2955
▁photo	-10.2959
▁symbols	-10.2971
▁pr	-10.2974
▁hungary	-10.2975
sk	-10.2976
▁sufficient	-10.2976
▁continuous	-10.2978
▁signs	-10.298
▁racing	-10.2982
▁rational	-10.2983
ade	-10.2986
▁clean	-10.2986
▁attached	-10.2988
▁armour	-10.299
▁massive	-10.299
6"	-10.2991
▁vice	-10.2999
▁agree	-10.3001
.6%	-10.3003
▁mus	-10.3006
▁forests	-10.301
▁storm	-10.3012
rop	-10.3019
app	-10.3021
▁lot	-10.3022
▁priest	-10.3023
▁computing	-10.3024
▁surviving	-10.3024
▁tournament	-10.3024
▁narrative	-10.3024
▁mosque	-10.3024
nus	-10.3024
▁federation	-10.3026
▁1944	-10.3026
▁grain	-10.3026
▁orbital	-10.3027
▁geography	-10.3027
▁observations	-10.3028
pped	-10.3031
▁criticized	-10.3032
▁patent	-10.3034
▁occupation	-10.3034
▁borders	-10.3034
▁artificial	-10.3037
▁operate	-10.3048
▁diet	-10.3049
▁algeria	-10.3049
▁roots	-10.305
bed	-10.3058
▁bonds	-10.3065
▁suit	-10.3065
▁siege	-10.3066
▁centauri	-10.3068
▁tur	-10.3069
▁gu	-10.307
03	-10.3073
▁substance	-10.3073
▁transferred	-10.3073
,000	-10.3078
▁tests	-10.3083
▁2021	-10.3091
▁vo	-10.3092
▁explained	-10.3099
▁eyes	-10.3109
▁belgian	-10.3109
▁codice	-10.3109
▁sodium	-10.3109
▁microsoft	-10.3109
▁1973	-10.3112
▁ann	-10.3115
roman	-10.3119
▁fled	-10.3121
bul	-10.3124
▁judge	-10.3134
▁windows	-10.3138
▁credited	-10.3147
▁absence	-10.3152
gn	-10.3156
▁educational	-10.3161
pen	-10.3163
▁plain	-10.3169
▁mur	-10.317
point	-10.3174
mate	-10.3177
▁functional	-10.3187
▁locations	-10.3189
more	-10.3191
▁industries	-10.3196
▁revenue	-10.3196
▁sim	-10.3199
▁documents	-10.32
▁hotel	-10.3202
▁vietnam	-10.3202
▁caesar	-10.3212
▁hope	-10.3215
▁waste	-10.3216
▁anne	-10.3218
▁existed	-10.3231
▁logo	-10.3236
sky	-10.3238
▁dropped	-10.3239
▁valid	-10.324
▁axon	-10.3241
down	-10.3245
▁arbor	-10.3247
▁retain	-10.3249
put	-10.3253
▁meat	-10.3253
▁kar	-10.3257
▁mechanical	-10.3258
▁prices	-10.3261
ically	-10.3262
5"	-10.3263
▁cult	-10.3264
▁hip	-10.3265
43	-10.3265
▁axis	-10.3277
▁store	-10.328
▁crosby	-10.3283
▁$	-10.3288
▁ven	-10.3297
.7%	-10.3299
▁bin	-10.3301
▁danish	-10.3303
stone	-10.3305
pha	-10.331
▁supporters	-10.3318
▁conservation	-10.3327
uff	-10.3331
▁garden	-10.3332
hy	-10.3333
▁discussion	-10.3333
▁demonstrated	-10.3338
▁ant	-10.3339
▁explain	-10.3345
▁export	-10.3346
vert	-10.3346
▁dan	-10.3349
▁districts	-10.3349
▁news	-10.3354
▁ham	-10.3359
▁your	-10.3361
▁proof	-10.3363
▁ensure	-10.3367
▁afonso	-10.3371
▁astronomical	-10.3371
▁baroque	-10.3371
▁buddhism	-10.3371
▁featuring	-10.3371
▁velocity	-10.3371
▁furthermore	-10.3373
fu	-10.3374
english	-10.338
▁tro	-10.3381
▁contest	-10.3382
ulat	-10.3385
▁rom	-10.3386
▁moderate	-10.3387
▁writes	-10.3387
▁2.	-10.3393
▁(2	-10.3396
▁signals	-10.3397
sum	-10.34
▁prison	-10.3401
▁hypothesis	-10.3415
▁denmark	-10.3415
▁$2	-10.3418
▁varies	-10.342
▁statue	-10.3421
▁drop	-10.3422
▁variation	-10.3422
▁neutral	-10.3425
▁1962	-10.3425
ets	-10.3432
▁collected	-10.3436
▁concepts	-10.3437
▁spa	-10.3438
▁generate	-10.3444
▁learned	-10.3445
▁peoples	-10.3447
▁spoke	-10.3449
▁greeks	-10.3449
▁exact	-10.3457
▁orchestra	-10.3458
▁heard	-10.3459
▁rotation	-10.3462
▁safe	-10.3462
▁grace	-10.3462
▁ur	-10.3464
▁episode	-10.3467
▁cl	-10.3472
▁abstract	-10.3473
▁q	-10.3482
▁bishops	-10.3483
los	-10.3491
▁thin	-10.35
▁formerly	-10.3503
▁answer	-10.3504
▁momentum	-10.3506
▁chance	-10.3507
world	-10.3509
▁height	-10.3509
▁genus	-10.3511
▁mechanism	-10.3514
class	-10.3514
▁amounts	-10.3519
▁arthur	-10.3522
▁conquered	-10.3524
41	-10.3524
▁canal	-10.3527
related	-10.3529
▁drawn	-10.3534
▁dispute	-10.3539
▁ambrose	-10.3549
▁appropriate	-10.3549
▁depression	-10.3549
▁expensive	-10.3549
.3%	-10.355
1)	-10.3556
▁strike	-10.3559
▁patterns	-10.3563
▁promoted	-10.3575
▁warm	-10.3575
ess	-10.3576
▁concerned	-10.358
hl	-10.3588
ali	-10.3591
▁exposure	-10.3594
▁ginsberg	-10.3594
▁huge	-10.3597
level	-10.3597
▁moment	-10.3611
▁castle	-10.3614
cut	-10.3622
iff	-10.3624
46	-10.3629
▁passing	-10.363
7"	-10.3635
long	-10.3637
▁metropolitan	-10.3639
ii	-10.3639
▁diseases	-10.3639
▁adobe	-10.3639
▁strategic	-10.364
▁anime	-10.364
▁saturn	-10.364
ow	-10.3641
ore	-10.3644
his	-10.365
▁concerns	-10.3652
▁beat	-10.3659
phy	-10.3663
▁preserved	-10.3668
▁braves	-10.3678
cker	-10.3678
▁possibility	-10.3685
▁tennessee	-10.3685
▁vienna	-10.3685
▁landscape	-10.3685
▁baltic	-10.3687
▁membership	-10.3689
▁feet	-10.3693
▁unusual	-10.3695
▁losing	-10.3696
▁titled	-10.3698
▁mining	-10.3699
▁immigrants	-10.3708
▁representatives	-10.3715
lit	-10.3716
aj	-10.3718
▁samples	-10.3718
ux	-10.3721
▁beliefs	-10.3722
▁tanks	-10.3724
rn	-10.3724
▁legislative	-10.373
▁taliban	-10.373
angular	-10.3734
▁realm	-10.3736
▁indeed	-10.3737
▁possession	-10.3739
▁representative	-10.3747
cious	-10.3766
▁constantinople	-10.3776
▁speer	-10.3776
▁abbot	-10.3776
▁laboratory	-10.3777
▁couple	-10.3782
uri	-10.3783
▁understand	-10.3784
▁leads	-10.3785
57	-10.3786
▁arithmetic	-10.3787
▁ste	-10.3791
▁champion	-10.3792
▁est	-10.3795
▁euro	-10.3799
▁solutions	-10.38
▁zo	-10.3803
pur	-10.382
▁aurangzeb	-10.3822
▁ruling	-10.3825
▁aalen	-10.3829
bl	-10.3829
▁machines	-10.3829
▁structural	-10.3833
▁grave	-10.3837
▁gall	-10.3839
▁limits	-10.3841
▁mineral	-10.3842
▁rank	-10.3847
▁substantial	-10.3854
dent	-10.3854
ole	-10.3855
1.	-10.3856
var	-10.3859
▁contributions	-10.386
▁norm	-10.3865
▁curve	-10.3866
▁arsenal	-10.3868
▁receiving	-10.3868
▁testament	-10.3868
▁basketball	-10.3869
▁reconstruction	-10.3869
▁relief	-10.387
▁visitors	-10.3871
▁bbc	-10.3872
vent	-10.3872
post	-10.3883
▁laid	-10.3885
▁thr	-10.3886
▁feed	-10.3891
she	-10.3894
▁hundreds	-10.3895
▁depicted	-10.3898
▁retained	-10.3905
▁camera	-10.3906
▁shore	-10.3908
▁dated	-10.3908
▁phone	-10.3915
▁bitumen	-10.3915
▁console	-10.3915
▁cathedral	-10.3915
▁transmission	-10.3915
▁sharon	-10.3916
bil	-10.392
▁exhibition	-10.3924
▁proto	-10.3926
▁cultures	-10.3927
▁—	-10.3929
▁seem	-10.393
body	-10.3934
▁taxes	-10.3941
gram	-10.3944
western	-10.3948
▁serves	-10.3952
▁doing	-10.3959
▁divisions	-10.3961
▁hub	-10.3961
▁controversial	-10.3962
▁jersey	-10.3962
▁pennsylvania	-10.3962
▁separation	-10.3962
▁funding	-10.3962
▁mel	-10.3963
rum	-10.3964
ef	-10.3966
▁constitute	-10.3969
▁saints	-10.3973
▁encouraged	-10.3974
▁constellation	-10.3977
ella	-10.398
▁label	-10.3982
pic	-10.3988
▁roll	-10.3989
press	-10.3991
▁bavaria	-10.3991
▁drinking	-10.3996
▁bright	-10.3997
▁job	-10.4007
▁gene	-10.4008
▁banjo	-10.401
▁partnership	-10.401
ert	-10.4015
▁conduct	-10.4015
▁cited	-10.4017
fin	-10.4021
▁grown	-10.4025
▁begun	-10.4026
▁dynamic	-10.4028
dimensional	-10.4031
▁incident	-10.4032
▁dar	-10.4032
▁preced	-10.4033
band	-10.4034
dan	-10.404
▁twin	-10.4044
ser	-10.4046
▁institution	-10.4055
▁communion	-10.4056
▁recruit	-10.4056
▁changing	-10.4056
via	-10.4064
▁heaven	-10.4068
▁mm	-10.407
▁performing	-10.4078
▁clinical	-10.4079
▁spaces	-10.4093
▁routes	-10.4097
mal	-10.4097
aceae	-10.4103
▁housing	-10.4103
▁1978	-10.4107
0"	-10.4107
▁concentrated	-10.4108
▁36	-10.4109
ute	-10.4118
▁sil	-10.4122
▁firm	-10.4125
▁convert	-10.4126
▁costs	-10.4126
▁chose	-10.4143
▁pc	-10.4144
▁annually	-10.4144
ks	-10.4149
▁barbados	-10.4151
▁cattle	-10.4151
▁comedy	-10.4153
thus	-10.4158
bon	-10.4158
.1%	-10.4163
▁cook	-10.4163
▁subjects	-10.4168
▁hungarian	-10.4171
general	-10.4172
largest	-10.4172
▁recognize	-10.4175
▁message	-10.4179
▁weapon	-10.418
▁socialist	-10.4181
▁connections	-10.4182
.2%	-10.4189
▁victoria	-10.4189
pot	-10.4193
▁legislature	-10.4199
▁schopenhauer	-10.4199
▁finance	-10.42
▁challenge	-10.42
▁illness	-10.4201
▁radar	-10.4202
▁csm	-10.4204
▁standing	-10.4208
▁fashion	-10.4212
▁carl	-10.4212
▁discipline	-10.4214
▁carrying	-10.4215
cap	-10.4221
▁balance	-10.4229
▁sentence	-10.4231
▁hy	-10.4231
▁elder	-10.4236
hood	-10.424
▁sweden	-10.4247
zar	-10.4248
▁municipality	-10.4249
▁isolated	-10.4251
▁1965	-10.4251
▁stability	-10.4253
▁anthropology	-10.4254
▁miller	-10.4259
▁astronomy	-10.4264
▁afl	-10.4264
east	-10.4269
▁worth	-10.4271
?"	-10.4271
▁boys	-10.4272
▁andalusia	-10.4283
cas	-10.4283
bury	-10.4286
▁archaeological	-10.4295
▁astrology	-10.4295
▁meanwhile	-10.4295
cr	-10.4298
▁sight	-10.43
cat	-10.4304
▁earned	-10.431
▁persons	-10.4315
▁borough	-10.4316
british	-10.4317
▁stored	-10.4318
▁civilization	-10.432
▁sacrifice	-10.432
2%	-10.4321
rad	-10.4325
▁markets	-10.4326
▁opinion	-10.4327
▁rear	-10.4328
▁faced	-10.4338
del	-10.4339
▁printed	-10.4343
▁legislation	-10.4344
▁companion	-10.4344
▁questions	-10.4344
▁committed	-10.4344
met	-10.4348
▁electricity	-10.4349
▁southwest	-10.4349
language	-10.4354
ls	-10.4358
▁cho	-10.4365
▁coll	-10.4365
▁sn	-10.4365
▁estimates	-10.4367
pr	-10.4368
▁wing	-10.4368
▁sort	-10.4369
rated	-10.4371
▁kyi	-10.4373
▁struggle	-10.4373
▁mars	-10.4373
▁circle	-10.4377
▁arabs	-10.4377
100	-10.4381
test	-10.4384
▁teacher	-10.4384
▁distinguished	-10.4384
▁trust	-10.4388
▁employ	-10.4391
▁journey	-10.4392
▁apostolic	-10.4392
▁sacred	-10.4393
▁stephen	-10.4393
▁pri	-10.4395
▁consequently	-10.4396
▁rodin	-10.4403
▁variant	-10.4404
▁arizona	-10.4404
.9%	-10.4406
▁pu	-10.4411
black	-10.4418
▁returning	-10.442
ose	-10.442
▁profit	-10.4427
▁iraq	-10.4429
tive	-10.4431
lie	-10.4434
mes	-10.444
▁identical	-10.4441
▁phillip	-10.4442
▁muscle	-10.4442
▁organisms	-10.4442
▁anything	-10.4442
▁degrees	-10.4443
▁1961	-10.4444
ett	-10.4448
▁stages	-10.445
▁concern	-10.4452
nc	-10.4453
▁fuller	-10.4453
▁particle	-10.4454
▁offers	-10.4455
▁cloud	-10.4457
08	-10.4457
▁lifetime	-10.4458
rich	-10.446
|18	-10.4461
▁yellow	-10.4462
ld	-10.4463
▁straight	-10.4473
rahman	-10.4473
▁concerning	-10.4482
▁consistent	-10.4483
▁map	-10.4486
▁naturally	-10.4488
"("	-10.4489
▁nu	-10.449
▁nucleus	-10.4491
▁false	-10.4491
▁cent	-10.4495
▁architect	-10.4496
▁occasionally	-10.4497
▁possess	-10.4497
▁harm	-10.4498
▁territorial	-10.45
ret	-10.4503
mic	-10.4508
3,	-10.4513
▁swedish	-10.4515
▁breed	-10.4517
▁agents	-10.4518
▁delivered	-10.4519
200	-10.452
script	-10.452
▁je	-10.452
aka	-10.4521
til	-10.4526
▁anatolia	-10.4528
▁pra	-10.4534
lm	-10.4537
▁bid	-10.4539
bin	-10.454
▁conclusion	-10.454
▁monastery	-10.454
▁diamond	-10.454
▁alternate	-10.454
▁wheel	-10.4541
▁trend	-10.4542
▁indicated	-10.4544
ms	-10.4548
▁stating	-10.4552
▁mari	-10.4552
▁waves	-10.4554
▁molecular	-10.4555
▁bolivia	-10.4558
ising	-10.4565
european	-10.4566
▁implemented	-10.457
▁tell	-10.457
▁server	-10.4573
▁(3	-10.4576
lor	-10.4582
▁charter	-10.4585
base	-10.4585
▁dog	-10.4588
▁auschwitz	-10.459
▁controversy	-10.459
▁destruction	-10.459
▁basque	-10.459
▁florida	-10.459
▁mad	-10.459
▁entry	-10.4591
▁thermal	-10.4593
wing	-10.4595
style	-10.4595
▁comic	-10.4601
▁fox	-10.4602
bus	-10.4602
▁doubt	-10.4615
▁adam	-10.4616
leg	-10.4617
▁sixth	-10.4618
▁tre	-10.462
▁sculpture	-10.4631
▁speaking	-10.4635
▁carriers	-10.4636
▁technologies	-10.464
▁biography	-10.4641
▁partial	-10.4645
▁retired	-10.4645
▁integrated	-10.4646
▁continuing	-10.4648
▁renaissance	-10.4648
▁spectrum	-10.4649
▁santa	-10.4649
pel	-10.465
▁rec	-10.4651
▁engaged	-10.4654
amine	-10.4655
▁hunt	-10.4658
▁tail	-10.4664
▁ter	-10.4664
ancient	-10.4667
eon	-10.4668
▁hearing	-10.4668
▁roma	-10.4668
▁wine	-10.4674
take	-10.4676
▁musicians	-10.4679
▁agrippina	-10.469
▁potassium	-10.469
▁significance	-10.469
▁alleged	-10.469
▁struck	-10.4691
ras	-10.4691
▁observation	-10.4697
▁household	-10.4699
▁tape	-10.4701
▁goes	-10.4702
▁ports	-10.4714
▁lakes	-10.4718
ee	-10.4728
▁trying	-10.4729
▁northeast	-10.4732
national	-10.4735
▁organisation	-10.4735
▁farming	-10.4739
nie	-10.474
▁elizabeth	-10.4741
▁wear	-10.4741
▁mythology	-10.4742
▁nfl	-10.4744
▁sunday	-10.4746
▁minority	-10.4748
▁recovery	-10.4749
▁favour	-10.4751
▁sla	-10.4752
▁draft	-10.4759
▁py	-10.4759
ue	-10.476
▁asteroids	-10.4765
▁ions	-10.4766
▁luc	-10.477
▁suu	-10.4775
▁closer	-10.4775
▁magnetic	-10.4777
3%	-10.4778
▁reflected	-10.4785
▁caves	-10.4785
▁equation	-10.4787
▁65	-10.4787
▁patron	-10.4791
▁commonwealth	-10.4791
▁oxford	-10.4791
▁/	-10.4792
▁retreat	-10.4794
▁distributed	-10.4795
▁singer	-10.4796
▁document	-10.4798
▁hyper	-10.48
▁miles	-10.4802
▁complexity	-10.4802
▁varying	-10.4803
▁accounting	-10.4807
▁tra	-10.4814
▁prove	-10.4816
▁page	-10.4817
white	-10.4822
▁bengal	-10.4824
▁replace	-10.4827
▁learn	-10.4833
▁minimum	-10.4842
▁installed	-10.4843
▁intermediate	-10.4843
▁apl	-10.4844
▁roger	-10.4845
▁mounted	-10.4845
▁colors	-10.4853
▁networks	-10.4855
▁restricted	-10.4856
▁34	-10.4857
▁plastic	-10.4857
▁exactly	-10.4859
▁phil	-10.4859
▁argue	-10.4876
▁regularly	-10.4878
▁corps	-10.4879
▁sale	-10.4883
▁finding	-10.4885
▁secure	-10.4885
▁belt	-10.4887
▁bro	-10.489
ski	-10.489
▁ceremony	-10.4894
▁bmw	-10.4894
▁cotton	-10.4894
▁easy	-10.4894
fire	-10.4896
▁sugar	-10.4896
▁planning	-10.4896
▁azerbaijani	-10.4898
mis	-10.4898
▁walk	-10.4911
▁arranged	-10.4913
▁interpreted	-10.4916
ori	-10.4916
fr	-10.492
uz	-10.492
▁gal	-10.4921
▁detailed	-10.4925
french	-10.4925
modern	-10.4925
▁pitcher	-10.4929
▁sta	-10.4931
.8%	-10.4936
▁bridges	-10.4941
▁rival	-10.4942
▁load	-10.4943
▁descendants	-10.4944
ij	-10.4944
▁antibiotic	-10.4945
▁aegean	-10.4945
▁offensive	-10.4945
▁situated	-10.4945
nk	-10.4945
▁municipalities	-10.4946
▁rod	-10.4949
▁1947	-10.4949
▁stack	-10.4949
▁knew	-10.495
▁parliamentary	-10.4951
nal	-10.4953
▁vowels	-10.4954
▁45	-10.4968
cht	-10.4972
▁discussed	-10.4976
▁lose	-10.4977
olo	-10.4978
▁frequent	-10.4983
▁influences	-10.4984
this	-10.4986
space	-10.4988
▁clearly	-10.4994
▁coalition	-10.4997
▁impossible	-10.4997
▁aaliyah	-10.4997
▁revival	-10.4997
▁initiative	-10.4998
tha	-10.4998
▁inscriptions	-10.5001
":	-10.5002
▁steps	-10.5003
▁rising	-10.5004
zy	-10.5007
▁cool	-10.5009
ins	-10.5011
lav	-10.5012
cit	-10.5015
▁paint	-10.5026
▁construct	-10.5031
▁populations	-10.5031
▁lasted	-10.5031
▁cm	-10.5033
lay	-10.5038
▁miss	-10.5041
oy	-10.5043
▁cricket	-10.5049
▁bought	-10.5049
▁architectural	-10.5049
▁railroad	-10.5049
▁referring	-10.5051
▁anal	-10.5052
▁copy	-10.5056
▁autonomous	-10.5059
▁spinoza	-10.5059
▁fruit	-10.5067
▁wil	-10.5071
▁tha	-10.5071
▁factory	-10.5073
▁fit	-10.5095
▁cro	-10.5095
cia	-10.5097
ington	-10.5101
▁responsibility	-10.5102
▁illegal	-10.5102
▁ahmad	-10.5102
▁bed	-10.5104
▁items	-10.5105
path	-10.5109
▁mr	-10.5111
▁specialized	-10.5111
▁romans	-10.5116
▁recommended	-10.5118
▁broken	-10.5119
▁purchased	-10.5121
7%	-10.5122
3)	-10.5124
ique	-10.5133
▁purchase	-10.5135
▁votes	-10.5135
)"	-10.5136
▁males	-10.5142
under	-10.5144
▁guide	-10.5146
▁actors	-10.5149
▁milk	-10.5151
▁assassination	-10.5154
▁carolina	-10.5154
▁aberration	-10.5154
▁trading	-10.5154
▁mentions	-10.5161
▁followers	-10.5164
▁rulers	-10.5166
▁bull	-10.5171
▁briefly	-10.5173
▁ace	-10.5177
▁pat	-10.5182
▁amp	-10.5186
▁register	-10.519
win	-10.5195
▁alan	-10.5196
cra	-10.5197
▁hills	-10.5201
án	-10.5204
▁verb	-10.5207
▁aphasia	-10.5207
▁denied	-10.5207
▁fresh	-10.5207
▁pal	-10.5209
▁1964	-10.521
▁bush	-10.5211
▁legend	-10.5212
▁revolutionary	-10.5212
▁dependent	-10.5215
zer	-10.5218
▁150	-10.5221
▁reality	-10.5223
▁hor	-10.5223
▁participated	-10.5226
▁sur	-10.5229
▁employees	-10.5231
▁creed	-10.5232
9%	-10.5232
ati	-10.5237
_5	-10.5246
▁300	-10.5246
▁coup	-10.5248
▁33	-10.5249
▁exports	-10.5251
▁neighbour	-10.526
▁entitled	-10.526
▁supplement	-10.526
▁racial	-10.526
▁brigade	-10.526
▁settlers	-10.5261
▁lock	-10.5263
▁charges	-10.5265
▁exclusively	-10.5269
▁coal	-10.5269
▁theme	-10.5271
▁disorders	-10.5281
▁establishments	-10.5286
▁reli	-10.5287
atory	-10.5291
▁participate	-10.5294
late	-10.5297
▁outer	-10.5298
jan	-10.5304
▁perfect	-10.5313
▁kennedy	-10.5314
▁mughal	-10.5314
▁christmas	-10.5315
▁francisco	-10.5316
▁asteroid	-10.5318
eo	-10.5329
▁fan	-10.5335
▁responded	-10.5339
high	-10.5343
▁defend	-10.5345
▁exile	-10.535
▁mol	-10.5351
▁neuro	-10.5351
▁try	-10.5351
▁thing	-10.5359
▁define	-10.536
▁mat	-10.536
▁wi	-10.5363
▁tip	-10.5363
▁sections	-10.5366
▁amendment	-10.5368
▁philadelphia	-10.5368
▁exposed	-10.5368
▁diameter	-10.5368
▁theoretical	-10.5368
▁pagan	-10.5369
▁algorithms	-10.537
stein	-10.5374
ped	-10.5374
mad	-10.5375
▁horizontal	-10.5376
▁proposal	-10.538
inus	-10.538
▁fishing	-10.5385
▁heir	-10.5388
8%	-10.5389
▁crystal	-10.5389
▁owners	-10.5393
▁titles	-10.5396
▁enjoyed	-10.5397
▁depict	-10.5397
▁consonants	-10.5404
range	-10.5404
nne	-10.5409
▁engineer	-10.5419
▁athanasius	-10.5422
▁website	-10.5422
▁describing	-10.5423
▁bowl	-10.5427
▁accordion	-10.5428
▁procedure	-10.5433
▁municipal	-10.5436
▁instruction	-10.5443
▁hell	-10.5451
▁lie	-10.5456
▁rob	-10.5456
▁electro	-10.5457
▁macro	-10.546
▁filled	-10.5462
▁syria	-10.5467
▁afrikaans	-10.5476
▁mutual	-10.5476
▁aachen	-10.5477
▁regiment	-10.5477
ome	-10.5477
▁directors	-10.5478
▁chair	-10.5478
▁manual	-10.5481
bach	-10.5488
▁variants	-10.5493
▁bath	-10.5498
▁essentially	-10.5501
▁drink	-10.5504
▁approaches	-10.5505
order	-10.5507
▁spin	-10.5508
▁beads	-10.5513
chen	-10.5523
▁90	-10.5527
▁kashmir	-10.5531
▁algae	-10.5531
▁aviation	-10.5531
▁stood	-10.5532
▁flying	-10.5532
▁cabinet	-10.5533
▁adoption	-10.5533
ection	-10.5534
▁dense	-10.5537
▁coach	-10.554
▁rev	-10.5543
meter	-10.5543
cor	-10.5543
▁scheme	-10.5545
gel	-10.5548
▁periods	-10.5553
▁bakr	-10.5553
▁unless	-10.5555
lim	-10.5558
▁undergo	-10.5562
▁fewer	-10.5567
▁tube	-10.5567
▁lyrics	-10.5572
rick	-10.5572
history	-10.5573
lot	-10.5583
▁assumption	-10.5586
▁ptolemy	-10.5586
▁valuable	-10.5586
-20	-10.5586
▁adverse	-10.5586
▁claiming	-10.5588
ency	-10.5594
▁assist	-10.5596
▁custom	-10.561
▁pel	-10.5612
▁brass	-10.5617
▁reserves	-10.5623
▁lift	-10.5623
▁hour	-10.5634
▁trained	-10.5636
▁fra	-10.5637
▁biggest	-10.5641
▁physician	-10.5641
▁tropical	-10.5641
▁trojan	-10.5641
▁choose	-10.5641
▁drew	-10.5642
▁1942	-10.5644
▁publicly	-10.5646
dal	-10.5649
inch	-10.5653
▁offices	-10.5655
▁meta	-10.5657
▁longest	-10.5657
▁shares	-10.5657
▁olympic	-10.5659
▁indicates	-10.566
▁cpu	-10.5667
ography	-10.5673
▁difficulty	-10.5677
▁interests	-10.5678
▁remove	-10.5678
▁raise	-10.5679
heim	-10.569
▁polar	-10.5691
▁pole	-10.5691
▁char	-10.5694
▁inspiration	-10.5696
▁predecessor	-10.5696
▁elsewhere	-10.5696
▁resist	-10.5697
▁cinema	-10.5698
▁altitude	-10.5699
▁perceived	-10.5702
▁ze	-10.5705
)|	-10.5705
how	-10.5707
▁attitude	-10.571
▁α	-10.5712
▁bonn	-10.5713
▁−	-10.5716
▁selling	-10.5716
▁adaptation	-10.5718
▁ol	-10.572
–2	-10.5721
▁apparently	-10.5722
▁villages	-10.5724
▁displayed	-10.5726
▁38	-10.5727
▁stem	-10.5731
▁license	-10.5733
▁experiences	-10.5734
dh	-10.5736
▁arguments	-10.5736
▁crops	-10.5737
ugh	-10.5744
▁operational	-10.5747
▁adjacent	-10.5752
▁cavalry	-10.5752
▁skull	-10.5752
▁quantities	-10.5752
▁thirty	-10.5752
▁alexios	-10.5752
trans	-10.5753
▁kit	-10.5756
▁democrats	-10.5757
▁covers	-10.5759
▁surrounded	-10.5759
▁walter	-10.576
▁1900	-10.5761
▁monarch	-10.5761
▁reserve	-10.5764
▁violent	-10.5765
billboard	-10.5766
▁monks	-10.5769
▁stroke	-10.5771
▁qua	-10.5772
▁reveal	-10.5774
city	-10.5777
gene	-10.5778
▁statements	-10.5784
4%	-10.5784
dec	-10.5787
▁fossil	-10.5788
▁emb	-10.579
▁aimed	-10.5792
▁meetings	-10.5793
▁links	-10.5795
oh	-10.5797
▁gang	-10.5798
ré	-10.5798
bound	-10.5798
eur	-10.5799
▁deposits	-10.58
aba	-10.5806
▁beautiful	-10.5808
▁democracy	-10.5808
▁dramatic	-10.581
▁inc	-10.581
▁pala	-10.5813
▁zi	-10.5823
ios	-10.5828
▁parent	-10.5829
▁ark	-10.5829
▁happen	-10.5831
▁spider	-10.5831
▁slowly	-10.5834
iya	-10.5838
▁commissioned	-10.584
▁(16	-10.5841
▁ashes	-10.5841
▁fur	-10.5845
rk	-10.5852
▁39	-10.5854
▁detail	-10.5857
fold	-10.5858
▁touch	-10.586
▁antiquity	-10.5865
▁execution	-10.5865
▁capone	-10.5867
▁employment	-10.5868
▁seventh	-10.5869
▁tourist	-10.5869
member	-10.5877
▁pool	-10.5879
power	-10.5879
▁suffering	-10.5885
▁acoustic	-10.5887
▁sit	-10.5888
▁waters	-10.5891
▁diplomatic	-10.5892
vol	-10.5892
▁4,	-10.5893
pass	-10.5894
▁select	-10.5894
▁driven	-10.5897
▁gross	-10.5902
▁depends	-10.5903
first	-10.5912
▁cla	-10.5916
making	-10.5919
▁massachusetts	-10.5922
▁wet	-10.5922
▁ritual	-10.5922
▁nickname	-10.5922
eastern	-10.5923
▁marble	-10.5924
▁1941	-10.5924
▁odd	-10.5929
▁monarchy	-10.5934
▁spelling	-10.5935
mas	-10.5937
▁flood	-10.5938
▁oxidation	-10.5938
▁oral	-10.5944
▁matters	-10.5945
▁chip	-10.5956
▁debut	-10.5959
▁column	-10.596
▁hydro	-10.5965
▁lesser	-10.5968
▁voted	-10.5969
dp	-10.5972
▁canterbury	-10.5979
▁derivative	-10.5979
0.	-10.5979
▁anarchism	-10.5979
▁optical	-10.598
▁planets	-10.5986
▁provincial	-10.5986
shi	-10.5987
▁implement	-10.5993
ç	-10.5997
▁ve	-10.6
▁3,	-10.6001
▁44	-10.601
nate	-10.6013
▁theology	-10.6015
sel	-10.6021
ule	-10.6024
oon	-10.6028
play	-10.603
hor	-10.603
▁contribute	-10.603
▁angel	-10.6031
▁marketing	-10.6032
▁binding	-10.6035
▁switzerland	-10.6036
▁militia	-10.6036
there	-10.6038
▁jump	-10.6038
▁assistant	-10.6041
▁executed	-10.6042
rous	-10.6048
nation	-10.6053
▁calling	-10.6056
▁faster	-10.6059
▁moreover	-10.6061
▁doctor	-10.6064
▁passenger	-10.6066
▁pot	-10.6067
lock	-10.6068
▁dia	-10.6075
chan	-10.6079
▁accident	-10.6082
lis	-10.6091
▁hybrid	-10.6094
▁archimedes	-10.6094
▁themes	-10.6096
pound	-10.61
▁crowd	-10.6101
▁ash	-10.6102
▁watch	-10.6102
▁estimate	-10.6105
▁delta	-10.6107
▁dig	-10.6109
cs	-10.6109
▁trials	-10.6109
list	-10.611
▁nest	-10.6114
▁protest	-10.6121
▁funds	-10.6122
▁save	-10.6126
▁arrested	-10.6126
▁adults	-10.613
▁covering	-10.6136
▁donat	-10.615
▁tribute	-10.6152
▁gregory	-10.6152
▁depth	-10.6152
▁ranging	-10.6153
▁51	-10.6154
▁opponents	-10.6155
▁lutheran	-10.6156
ense	-10.6156
▁jet	-10.6156
▁discuss	-10.6157
▁predict	-10.6168
▁partially	-10.6169
word	-10.6169
▁campaigns	-10.6171
▁grounds	-10.6172
▁fragments	-10.6177
had	-10.6177
▁yo	-10.6178
▁engines	-10.6179
▁neck	-10.6181
shire	-10.6182
▁delay	-10.6185
gir	-10.6191
int	-10.6191
5%	-10.6192
3.	-10.6195
▁andorra	-10.6197
rah	-10.6197
▁enable	-10.6204
▁().	-10.621
▁cousin	-10.6211
▁antisemitism	-10.6211
▁antigua	-10.6212
▁keyboard	-10.6212
▁1963	-10.6214
▁merger	-10.6218
kar	-10.6219
▁periodic	-10.6223
▁coat	-10.6223
▁memoir	-10.6224
▁anarcho	-10.6225
▁relationships	-10.623
▁random	-10.6232
hol	-10.6237
▁infinite	-10.6238
poli	-10.6239
▁bones	-10.6243
▁predicted	-10.6245
▁collapse	-10.625
▁1000	-10.6256
▁destroy	-10.626
▁businesses	-10.6263
▁mos	-10.6263
▁cartridge	-10.627
▁circumstances	-10.627
▁perception	-10.627
▁childhood	-10.627
▁framework	-10.627
▁intention	-10.6271
▁metro	-10.6272
▁besides	-10.6273
▁distinctive	-10.6276
▁alien	-10.6278
▁entertainment	-10.6285
▁mainland	-10.6286
▁portrayed	-10.6292
▁blind	-10.6294
▁publishing	-10.6295
▁passengers	-10.6299
▁arrangement	-10.6306
▁owner	-10.6308
▁400	-10.6308
xi	-10.6316
ili	-10.6319
▁cu	-10.6321
▁37	-10.6322
▁begins	-10.6329
▁elaborate	-10.6329
▁holiday	-10.6329
▁shield	-10.6329
▁daniel	-10.6329
▁1943	-10.6332
▁1948	-10.6332
▁suitable	-10.6333
▁bone	-10.6334
▁operates	-10.6334
▁1914	-10.6335
▁pit	-10.6336
▁fans	-10.6338
kan	-10.6341
▁magic	-10.6343
▁initiated	-10.6343
▁seasons	-10.6346
onia	-10.6347
ode	-10.6352
▁poets	-10.6358
▁tall	-10.6366
▁tons	-10.6367
die	-10.6367
▁giant	-10.6369
bat	-10.637
▁balls	-10.6374
▁composer	-10.6375
▁raid	-10.6376
▁deliver	-10.6382
▁anniversary	-10.6388
▁supplies	-10.6388
▁invited	-10.6388
▁varied	-10.6389
ben	-10.6389
▁roof	-10.6391
▁cooperation	-10.6391
▁strait	-10.6397
▁farmers	-10.6398
avi	-10.64
5,000	-10.6401
_6	-10.6411
ette	-10.6417
▁shorter	-10.6422
4,	-10.6425
▁candidates	-10.643
▁preparation	-10.6431
▁procedures	-10.6435
▁loan	-10.6436
phil	-10.6439
▁uncertain	-10.6448
▁facility	-10.6448
▁terminology	-10.6448
▁antimony	-10.6448
▁astatine	-10.6448
▁residence	-10.6449
▁treatise	-10.6449
▁documentary	-10.645
▁phenomena	-10.6451
ord	-10.6461
▁clock	-10.6464
▁vessels	-10.6464
▁eggs	-10.6468
▁sounds	-10.6469
▁oxide	-10.6476
▁sole	-10.6478
mos	-10.6479
lle	-10.6482
▁dress	-10.6485
kel	-10.6488
▁ready	-10.6491
▁immediate	-10.6494
sia	-10.6496
hard	-10.6497
▁religions	-10.6498
▁really	-10.6503
0%	-10.6506
▁cabin	-10.6507
▁mont	-10.6508
▁entrance	-10.6508
▁presidency	-10.6508
▁replacement	-10.6512
▁beta	-10.6513
flow	-10.6513
▁fluid	-10.6514
▁franchise	-10.6531
▁hol	-10.6537
▁albums	-10.6538
adi	-10.6544
▁eli	-10.6546
▁gui	-10.6549
gas	-10.6556
rank	-10.656
):	-10.6564
second	-10.6565
inter	-10.6566
▁archipelago	-10.6569
▁autumn	-10.6569
▁avicenna	-10.6569
▁solzhenitsyn	-10.6569
▁trouble	-10.6569
▁bahamas	-10.6569
▁ordinary	-10.6569
▁dream	-10.6569
▁telescope	-10.6569
▁rainfall	-10.6569
▁boat	-10.6573
▁mild	-10.6574
▁restored	-10.6581
▁fun	-10.6583
▁bits	-10.6588
cer	-10.659
vor	-10.659
▁ame	-10.6592
ctor	-10.6604
▁compete	-10.6614
▁expand	-10.6616
▁han	-10.6618
▁decisions	-10.6623
▁pur	-10.6625
▁sweet	-10.663
▁teeth	-10.663
▁brandenburg	-10.663
▁antibodies	-10.663
▁dangerous	-10.6631
▁cape	-10.6631
▁guilty	-10.6633
▁loop	-10.6637
▁gor	-10.6637
▁epic	-10.6637
bas	-10.6638
ima	-10.6642
▁scheduled	-10.6643
▁ken	-10.6644
▁reforms	-10.6649
▁ethics	-10.665
▁wire	-10.6651
game	-10.6654
▁75	-10.6656
▁thick	-10.6665
lab	-10.6668
▁requirements	-10.6673
▁capita	-10.6675
▁(15	-10.6685
▁specification	-10.6688
▁gate	-10.669
▁anthony	-10.6691
▁judicial	-10.6691
▁pronunciation	-10.6691
▁reception	-10.6691
▁lewis	-10.6691
▁whorf	-10.6691
later	-10.6692
liber	-10.6693
south	-10.6693
▁elevation	-10.6693
▁rhine	-10.6693
▁bodhisattva	-10.6695
ado	-10.6697
▁marry	-10.6702
▁accord	-10.6705
▁voyage	-10.671
▁reviews	-10.671
▁arrest	-10.6719
osis	-10.6721
▁palm	-10.6724
▁grammar	-10.6727
▁48	-10.6733
▁ranks	-10.6734
▁potentially	-10.6743
▁elect	-10.6743
ages	-10.6748
▁papers	-10.6749
▁samuel	-10.6753
▁crater	-10.6753
▁jazz	-10.6754
▁downtown	-10.6757
▁1939	-10.6758
▁aaron	-10.6758
▁fired	-10.6766
▁lithium	-10.6774
▁monitor	-10.6774
▁ministers	-10.6775
▁roles	-10.6779
▁romantic	-10.678
arm	-10.6789
lip	-10.6795
itis	-10.6797
▁wooden	-10.68
▁determin	-10.6805
▁winner	-10.6807
▁appearances	-10.6811
▁francis	-10.6813
▁genre	-10.6813
▁advice	-10.6815
▁configuration	-10.6815
▁congregation	-10.6815
▁portrait	-10.6815
▁corn	-10.6817
▁1956	-10.6818
▁herself	-10.682
▁permit	-10.682
card	-10.6821
polis	-10.6823
▁laden	-10.6824
phone	-10.6826
▁looking	-10.6831
pod	-10.6833
▁karl	-10.6835
▁afterwards	-10.6844
▁anyone	-10.6844
▁vol	-10.6847
▁feel	-10.6848
▁tr	-10.6851
▁happened	-10.6853
▁finite	-10.6854
▁organ	-10.6872
▁massacre	-10.6878
▁objective	-10.6878
▁flights	-10.6883
atic	-10.6883
▁explicitly	-10.6883
▁seeking	-10.6883
▁"[	-10.6887
char	-10.689
="19	-10.6891
▁performances	-10.6895
▁tract	-10.6895
▁cle	-10.6902
▁strain	-10.6904
▁enjoy	-10.6906
▁synthetic	-10.6909
▁measurements	-10.6913
▁damaged	-10.6923
▁shadow	-10.6925
▁accurate	-10.6926
oz	-10.6927
▁jan	-10.6928
-130	-10.6932
▁jurisdiction	-10.6933
▁instrumental	-10.6938
▁phenomenon	-10.6941
▁roussimoff	-10.6941
▁gospel	-10.6941
▁secular	-10.6941
▁permitted	-10.6942
ón	-10.6949
▁10%	-10.6953
▁deployed	-10.6953
▁sat	-10.6953
▁asu	-10.6954
▁threatened	-10.6955
▁habitat	-10.6956
▁wealthy	-10.6959
▁strict	-10.696
▁alumni	-10.6966
▁teachings	-10.6969
▁recovered	-10.6975
▁pla	-10.6976
dale	-10.6978
▁thereby	-10.6983
▁scored	-10.6986
nan	-10.6988
▁mit	-10.6989
▁seeing	-10.6992
▁aero	-10.6993
▁sphere	-10.6996
▁manufacturers	-10.6996
ky	-10.6997
▁aspect	-10.6998
count	-10.7003
▁frederick	-10.7004
▁beauty	-10.7004
▁apostles	-10.7004
▁session	-10.7004
▁val	-10.7004
▁plural	-10.7004
▁consent	-10.7004
▁trail	-10.7008
▁transit	-10.701
▁independently	-10.701
▁mississippi	-10.7014
ale	-10.7024
▁lists	-10.703
bc	-10.7032
▁nar	-10.7032
▁elite	-10.7034
▁bob	-10.7034
cell	-10.7037
▁festivals	-10.7038
▁kb	-10.7039
holder	-10.7044
owned	-10.7045
▁consideration	-10.7045
▁canton	-10.7046
god	-10.7047
▁kr	-10.7048
▁sleep	-10.7053
▁napoleon	-10.7054
akh	-10.7055
▁stands	-10.7059
▁handle	-10.7062
▁inscription	-10.7063
▁tissue	-10.7064
▁americium	-10.7068
▁warfare	-10.7068
▁matrix	-10.7068
▁resort	-10.7068
▁antimicrobial	-10.7068
▁stopped	-10.7069
▁corruption	-10.7069
▁likewise	-10.707
▁acceptance	-10.707
▁retail	-10.7071
▁1918	-10.7074
▁antigen	-10.7076
allosaurus	-10.7076
▁resigned	-10.7082
▁invaded	-10.7085
▁clay	-10.7087
▁correspond	-10.709
▁pl	-10.7097
▁wound	-10.7097
▁10,000	-10.7099
lio	-10.7106
▁sm	-10.7106
lum	-10.7108
fra	-10.7109
▁divide	-10.7113
▁é	-10.7114
idae	-10.7117
▁premier	-10.712
abdu	-10.7123
▁politicians	-10.7126
▁pun	-10.7128
▁judgment	-10.7132
▁wrong	-10.7132
▁guest	-10.7134
▁lawyer	-10.7134
▁indicat	-10.7134
▁substances	-10.7136
▁difficulties	-10.7137
lands	-10.7137
▁amway	-10.7137
▁tasks	-10.7138
▁franco	-10.7142
▁geo	-10.7148
▁por	-10.715
▁wolf	-10.7155
▁commanded	-10.7156
maker	-10.7159
coming	-10.7162
ement	-10.7166
▁solo	-10.717
▁rays	-10.7174
▁habit	-10.7185
kes	-10.7186
▁alter	-10.7191
▁infection	-10.7195
▁bachchan	-10.7196
▁clergy	-10.7196
▁houston	-10.7196
▁michigan	-10.7196
▁virtue	-10.7196
▁jacob	-10.7196
▁everything	-10.7197
nis	-10.7198
▁thereafter	-10.7205
about	-10.7208
▁geometric	-10.721
▁newspapers	-10.721
▁aesthetic	-10.7216
▁bern	-10.7218
mont	-10.722
▁rap	-10.7221
▁bag	-10.7222
bia	-10.7226
▁pseudo	-10.723
▁scenes	-10.723
▁spending	-10.723
▁wider	-10.7231
▁wings	-10.7233
▁minerals	-10.7236
▁az	-10.7236
▁painted	-10.7241
▁semitic	-10.7242
▁combine	-10.7242
4.	-10.7247
▁antidepressants	-10.7248
▁cd	-10.7252
▁aged	-10.7252
▁producers	-10.7257
▁theological	-10.7261
▁hollywood	-10.7261
▁salieri	-10.7261
▁swiss	-10.7261
▁hopkins	-10.7261
▁friedrich	-10.7261
▁invention	-10.7262
▁adventure	-10.7262
▁punishment	-10.7262
▁bicycle	-10.7262
▁capability	-10.7262
▁mainstream	-10.7263
▁crossed	-10.7264
▁equations	-10.7268
▁someone	-10.7269
▁defendant	-10.727
deemed	-10.7272
▁pairs	-10.7272
▁iso	-10.728
▁enabled	-10.7283
▁tin	-10.7283
▁detect	-10.7289
master	-10.729
▁surrender	-10.7292
▁losses	-10.7296
ons	-10.7297
▁variables	-10.7304
▁marks	-10.7304
▁brew	-10.7304
6.	-10.731
▁fat	-10.7313
▁ranking	-10.732
▁toxic	-10.732
▁ridge	-10.7321
▁absorption	-10.7326
▁defensive	-10.7326
▁enemies	-10.7326
▁impression	-10.7326
▁mesopotamia	-10.7326
▁tarkovsky	-10.7326
▁nomination	-10.7326
▁neighborhood	-10.7327
▁duties	-10.7327
tric	-10.7328
▁banned	-10.7328
▁innovation	-10.7329
▁specimen	-10.7329
▁underground	-10.733
owing	-10.7332
jewish	-10.7334
▁1919	-10.7339
▁panel	-10.734
▁contribution	-10.734
code	-10.7342
6%	-10.7342
▁rely	-10.7344
nian	-10.7349
ame	-10.7349
▁arabian	-10.735
▁bombing	-10.7351
▁sheet	-10.7352
▁williams	-10.7355
▁disputed	-10.7355
stall	-10.7366
tical	-10.7367
get	-10.7368
%)	-10.7368
▁goals	-10.7372
▁evil	-10.7376
▁"...	-10.7376
▁pont	-10.7379
pra	-10.7379
▁bou	-10.7388
▁calendar	-10.7392
▁capabilities	-10.7392
▁restoration	-10.7392
▁familiar	-10.7392
▁distant	-10.7392
▁correspondence	-10.7393
where	-10.7394
vy	-10.7395
▁devoted	-10.7398
▁predominantly	-10.7399
▁consumer	-10.7399
▁valleys	-10.74
▁ammoniu	-10.74
tte	-10.7401
ami	-10.7401
▁virtually	-10.7402
▁flowers	-10.7406
▁pronounced	-10.7409
▁reportedly	-10.7412
▁termed	-10.7412
▁chess	-10.7413
glo	-10.7413
▁namely	-10.7414
hn	-10.7417
crypt	-10.7427
any	-10.7427
logical	-10.7428
ech	-10.7428
▁locally	-10.7432
▁champions	-10.7434
amb	-10.7434
▁monarchs	-10.7434
▁tourists	-10.7436
▁arrow	-10.7436
key	-10.7439
▁ski	-10.7439
▁instructions	-10.7444
▁ak	-10.7446
▁dy	-10.7451
▁supposed	-10.7452
position	-10.7452
morph	-10.7455
▁seed	-10.7456
▁ancestry	-10.7458
▁consecutive	-10.7458
▁declaration	-10.7458
▁membrane	-10.7459
▁confusion	-10.7459
▁aruba	-10.746
table	-10.7462
▁hunter	-10.7463
cm	-10.7463
▁gender	-10.7464
▁merged	-10.7465
▁gift	-10.7465
▁ninth	-10.7468
▁1910	-10.7469
▁allen	-10.7471
▁log	-10.7471
▁$3	-10.7473
tv	-10.7476
▁plateau	-10.7477
▁mini	-10.7482
hot	-10.7485
▁parks	-10.7487
▁decreased	-10.749
▁door	-10.7495
▁johnston	-10.7498
ora	-10.7505
▁benefits	-10.7507
▁flee	-10.7507
san	-10.7508
citing	-10.7511
stat	-10.7516
▁notation	-10.7516
▁kin	-10.7518
▁hosts	-10.7518
▁flu	-10.752
▁bel	-10.752
▁logical	-10.752
▁decimal	-10.7525
▁moscow	-10.7525
▁nervous	-10.7525
▁thirteen	-10.7525
▁insurance	-10.7525
▁syllable	-10.7525
▁ahmed	-10.7525
▁remote	-10.7525
▁extend	-10.7525
▁airways	-10.7526
▁ownership	-10.7526
▁piano	-10.7526
matic	-10.7526
▁occurring	-10.7527
▁wilson	-10.7527
▁priests	-10.7528
▁alkanes	-10.7529
▁finger	-10.753
▁voters	-10.7532
▁milan	-10.7532
▁poems	-10.7532
▁bread	-10.7534
saxon	-10.7536
▁calculated	-10.7536
▁package	-10.7537
▁mirror	-10.7541
▁neighboring	-10.7545
ister	-10.7546
▁hired	-10.7552
▁rocks	-10.7557
▁singing	-10.7563
fall	-10.7564
9.	-10.7568
rap	-10.7584
▁;	-10.759
▁lieutenant	-10.7592
▁compromise	-10.7592
▁intervention	-10.7592
▁tunnel	-10.7592
▁engineers	-10.7592
▁admitted	-10.7593
▁pathway	-10.7595
gs	-10.7597
▁lady	-10.7599
▁females	-10.76
yard	-10.7603
▁tool	-10.7603
▁else	-10.7603
▁ir	-10.7608
▁manufacturer	-10.7608
▁philippines	-10.7608
▁tribe	-10.7609
▁competitive	-10.761
▁55	-10.761
▁backup	-10.7615
▁governments	-10.7617
▁(4	-10.7625
oriented	-10.7628
▁settlements	-10.7632
▁interested	-10.7633
▁educated	-10.7634
▁wal	-10.7635
8,	-10.7638
▁steve	-10.7639
▁corner	-10.7646
ral	-10.765
▁hay	-10.765
▁alchemy	-10.766
▁necessarily	-10.766
▁physicist	-10.766
▁filter	-10.766
▁sculptor	-10.766
▁radius	-10.7661
▁heavier	-10.7662
▁antibody	-10.7663
▁1955	-10.7664
▁tetra	-10.7664
▁conflicts	-10.7666
▁mill	-10.7666
▁cyclo	-10.7672
▁parish	-10.7672
▁aston	-10.7672
▁tells	-10.7676
▁macedonian	-10.7678
two	-10.7679
▁bind	-10.7681
ann	-10.7681
▁ankara	-10.7682
elle	-10.7696
party	-10.7703
▁rabbi	-10.7703
▁registered	-10.7704
▁negotiations	-10.7704
other	-10.7706
▁antarctic	-10.7707
▁preserve	-10.7709
lian	-10.7711
mr	-10.7716
▁adopt	-10.7719
▁argentina	-10.7728
▁circular	-10.7728
▁maintenance	-10.7728
▁navigation	-10.7728
▁suicide	-10.7728
▁spectral	-10.773
▁friendship	-10.7731
▁orientation	-10.7731
▁arctic	-10.7732
▁collaboration	-10.7733
▁regardless	-10.7733
▁archive	-10.7734
ware	-10.7734
bn	-10.7736
▁1880	-10.7736
▁transformation	-10.7737
▁targets	-10.7737
ht	-10.7737
▁repeated	-10.7738
▁affair	-10.7741
▁praised	-10.7744
▁steal	-10.7745
▁slot	-10.7745
▁streets	-10.775
▁anc	-10.7751
▁governed	-10.7755
▁fri	-10.7755
ei	-10.7758
chu	-10.776
film	-10.7762
ties	-10.7765
▁scope	-10.7767
▁bosnian	-10.777
alpha	-10.7771
▁deck	-10.7771
▁dun	-10.7773
▁documented	-10.7774
▁nato	-10.7776
▁singles	-10.7776
▁bahá	-10.7777
▁1,000	-10.7778
▁seemed	-10.7781
tum	-10.7782
▁mechanisms	-10.7782
▁denote	-10.7782
▁flows	-10.7784
hop	-10.779
ick	-10.7796
▁exploration	-10.7796
▁armstrong	-10.7796
▁injury	-10.7796
▁bears	-10.7797
▁lawsuit	-10.7797
▁stronger	-10.7798
▁banach	-10.7798
▁boundary	-10.78
▁steam	-10.7806
grand	-10.7807
▁grey	-10.7812
▁babylonian	-10.7817
▁princess	-10.782
nut	-10.7823
ace	-10.7826
▁succeed	-10.7831
▁catch	-10.7836
▁sy	-10.7836
▁defended	-10.784
▁victims	-10.7844
▁jim	-10.7846
gil	-10.785
▁sharp	-10.7851
ye	-10.7852
▁angles	-10.7853
▁whit	-10.7855
made	-10.7855
tas	-10.7856
▁germanic	-10.786
▁abuse	-10.7861
ref	-10.7863
▁arbitration	-10.7865
▁participation	-10.7865
beowulf	-10.7865
▁danger	-10.7865
▁alaric	-10.7866
▁morning	-10.7867
etic	-10.7868
▁withdrawal	-10.7872
▁correction	-10.7878
▁mix	-10.7879
blue	-10.7881
fiction	-10.7881
christian	-10.7882
▁battery	-10.7886
▁pad	-10.789
▁vital	-10.7894
▁crossing	-10.7894
_7	-10.7895
hon	-10.7898
▁salts	-10.7906
pal	-10.7906
fish	-10.7922
stan	-10.7923
-3	-10.7924
▁serbia	-10.7925
▁readers	-10.7928
▁defect	-10.7931
▁diversity	-10.7935
▁earthquake	-10.7935
▁easier	-10.7935
▁promotion	-10.7935
▁removal	-10.7935
▁nuclei	-10.7935
after	-10.7935
▁rifle	-10.7935
▁creative	-10.7935
▁reproduction	-10.7937
▁1952	-10.7938
▁hitler	-10.7939
▁oath	-10.7939
▁systematic	-10.7939
▁chairman	-10.7939
▁1912	-10.7941
▁chains	-10.7941
mission	-10.7943
▁burning	-10.7947
▁administered	-10.7949
▁tan	-10.795
▁41	-10.7951
8.	-10.7956
▁eighth	-10.7956
▁interaction	-10.7958
▁recover	-10.7959
▁cannon	-10.796
▁challenged	-10.7963
▁passes	-10.7967
▁ker	-10.7968
try	-10.7969
▁fin	-10.7972
▁connector	-10.7973
▁replac	-10.7973
▁engage	-10.7983
string	-10.7983
ania	-10.7984
ack	-10.7986
awa	-10.7988
▁intel	-10.7988
▁usual	-10.7997
▁acropolis	-10.8005
▁guidance	-10.8005
▁sayyaf	-10.8005
▁episcopal	-10.8005
▁funeral	-10.8005
▁darwin	-10.8005
▁compact	-10.8005
▁zinc	-10.8005
▁submitted	-10.8005
▁falcons	-10.8006
▁1928	-10.801
conf	-10.801
▁keeping	-10.8014
aya	-10.8014
▁rice	-10.8015
▁addressed	-10.8015
▁singers	-10.8016
▁mexican	-10.8019
▁crop	-10.802
august	-10.8022
▁swa	-10.8023
▁rhythm	-10.8025
▁molecule	-10.8026
▁transform	-10.8039
▁humanity	-10.8039
ographic	-10.804
▁albanians	-10.8042
▁sel	-10.8045
hir	-10.8055
▁layers	-10.8061
▁def	-10.8067
room	-10.8069
▁jar	-10.8071
▁behaviour	-10.8075
▁perspective	-10.8075
▁volcanic	-10.8075
▁smooth	-10.8075
▁barrier	-10.8075
▁prototype	-10.8076
▁involve	-10.8076
▁dollars	-10.8076
▁loose	-10.8077
▁frontier	-10.808
▁collect	-10.808
▁cia	-10.8081
▁1860	-10.8082
▁1890	-10.8082
▁mammals	-10.8087
▁belarusian	-10.8088
▁moses	-10.809
last	-10.8096
▁consonant	-10.8099
▁girl	-10.8099
ancy	-10.8106
("	-10.8122
▁plea	-10.8122
▁dur	-10.8126
mod	-10.8127
▁processor	-10.8141
▁alps	-10.8141
turn	-10.8142
▁crusade	-10.8144
▁accrington	-10.8146
▁benjamin	-10.8146
▁confederation	-10.8146
▁crucial	-10.8146
▁emergency	-10.8146
▁fantasy	-10.8146
▁integral	-10.8146
▁precipitation	-10.8146
▁terrain	-10.8146
▁ranges	-10.8147
▁stayed	-10.815
▁120	-10.815
▁shall	-10.8151
▁jones	-10.8154
bol	-10.8157
read	-10.8163
▁imposed	-10.8167
rel	-10.8168
tine	-10.8171
▁melting	-10.8171
▁senator	-10.8172
▁thinking	-10.8173
▁astronomers	-10.8176
▁benin	-10.8178
▁shooting	-10.8181
▁chronicle	-10.8181
▁argon	-10.8182
5.	-10.8183
lc	-10.8183
▁hits	-10.8187
▁critic	-10.8194
pin	-10.8197
pol	-10.8205
–17	-10.8207
▁pictures	-10.8213
▁qa	-10.8215
▁topic	-10.8215
▁kinds	-10.8216
▁autonomy	-10.8217
▁commerce	-10.8217
▁dürer	-10.8217
▁welsh	-10.8217
▁louisiana	-10.8217
▁livestock	-10.8218
▁talent	-10.8218
▁chapel	-10.8218
▁citizenship	-10.8219
▁simultaneously	-10.8223
▁reflection	-10.823
▁concentrations	-10.823
▁acknowledged	-10.8239
▁hymn	-10.8245
sub	-10.8246
may	-10.8247
ira	-10.8249
▁poison	-10.825
lf	-10.825
▁wo	-10.825
▁skills	-10.8253
gli	-10.8255
▁6,	-10.8261
−	-10.8276
▁scan	-10.8277
▁atp	-10.8281
▁hat	-10.8282
ico	-10.8282
▁concrete	-10.8289
▁corporate	-10.8289
▁huxley	-10.8289
▁requiring	-10.8289
▁attorney	-10.8289
▁jordan	-10.8289
▁entities	-10.8289
▁patriarch	-10.829
▁entity	-10.829
▁bigfoot	-10.829
▁bulk	-10.829
▁andersson	-10.829
▁dioxide	-10.829
▁latitude	-10.8291
▁venture	-10.8291
▁tennis	-10.8291
▁restaurants	-10.8293
▁1949	-10.8294
▁1929	-10.8296
▁convinced	-10.8297
▁orbitals	-10.8298
▁highlight	-10.8298
▁associate	-10.8302
vic	-10.8303
▁merit	-10.8303
▁rub	-10.8305
▁promised	-10.8308
▁coined	-10.8309
bahá	-10.831
ega	-10.8311
although	-10.8318
▁manuscripts	-10.8319
▁mathematician	-10.8319
▁ear	-10.8323
▁extensively	-10.8327
▁respond	-10.8328
▁drum	-10.8329
▁hatch	-10.833
▁customs	-10.8341
▁interactions	-10.8342
▁encourage	-10.8342
▁flor	-10.8344
▁vest	-10.8348
▁beam	-10.8348
▁championships	-10.835
rm	-10.8355
▁rush	-10.8358
▁isotopes	-10.836
▁culminat	-10.8362
▁probability	-10.8362
▁nominated	-10.8362
▁chloride	-10.8362
▁considerably	-10.8363
4)	-10.8364
▁compatible	-10.8364
▁pointed	-10.8365
▁taste	-10.8365
▁proven	-10.837
▁forcing	-10.8372
you	-10.8382
▁alcoholic	-10.8384
specific	-10.8385
▁discover	-10.8388
was	-10.839
lla	-10.8391
▁attempting	-10.8399
▁measurement	-10.84
▁encounter	-10.8401
ér	-10.8403
sign	-10.8404
burn	-10.8405
active	-10.8407
ough	-10.8409
▁bore	-10.841
▁verse	-10.8412
▁gla	-10.8412
▁arise	-10.8415
▁demonstrate	-10.8415
▁processors	-10.8417
▁solve	-10.8417
▁assume	-10.8417
▁studying	-10.842
▁persia	-10.8421
▁citizen	-10.8422
rant	-10.8431
mol	-10.8435
▁ye	-10.8435
▁accuracy	-10.8435
▁commodore	-10.8435
▁constituent	-10.8435
▁demonstration	-10.8435
▁mechanics	-10.8435
▁millennium	-10.8435
▁societies	-10.8435
▁albedo	-10.8435
▁restrictions	-10.8435
▁geological	-10.8436
▁involvement	-10.8438
▁payment	-10.8443
▁1958	-10.8445
▁guards	-10.8445
▁battleships	-10.8447
▁recognised	-10.8448
▁crewed	-10.8448
even	-10.8451
▁scr	-10.8455
▁span	-10.8458
gor	-10.8459
▁au	-10.846
▁teachers	-10.8463
tone	-10.8471
▁tends	-10.8476
▁dio	-10.8477
▁antarctica	-10.848
▁pho	-10.8483
▁syn	-10.8487
▁civilian	-10.849
▁centers	-10.8491
▁americas	-10.8493
sm	-10.8494
▁dot	-10.8503
▁integration	-10.8508
▁judaism	-10.8508
▁worn	-10.8509
7.	-10.851
▁1946	-10.8512
▁alcott	-10.8512
▁unclear	-10.8513
▁1954	-10.8513
ogen	-10.8515
▁1917	-10.8517
▁landed	-10.8517
▁terrorist	-10.8517
▁cam	-10.8519
aq	-10.852
▁prediction	-10.8522
human	-10.8522
▁cash	-10.8526
▁joe	-10.8531
elli	-10.8533
anda	-10.8547
▁wish	-10.855
▁#	-10.8561
great	-10.8561
▁rad	-10.8562
▁mine	-10.8567
rash	-10.8575
▁proton	-10.8579
▁masses	-10.8581
▁andronikos	-10.8582
▁aquaculture	-10.8582
▁deficit	-10.8582
▁diocese	-10.8582
▁polynomial	-10.8582
▁disaster	-10.8583
▁flew	-10.8583
▁caught	-10.8585
▁flame	-10.8586
▁arabia	-10.8587
▁shock	-10.8588
oids	-10.8589
▁skill	-10.859
when	-10.859
▁electoral	-10.859
▁dishes	-10.859
▁mas	-10.8593
▁trick	-10.8593
▁advances	-10.8595
▁horses	-10.8596
ava	-10.8598
▁tracks	-10.8601
▁errors	-10.8603
▁equipped	-10.8605
capitalist	-10.8607
▁arose	-10.8608
▁noise	-10.8608
▁analytical	-10.8608
father	-10.8608
cultural	-10.8609
▁algerian	-10.8612
▁improvements	-10.8614
▁protests	-10.8617
▁reject	-10.8618
▁transformed	-10.8619
▁integer	-10.8621
four	-10.8623
▁leagues	-10.8625
▁girls	-10.8632
▁refuge	-10.8647
latin	-10.8649
dict	-10.8653
▁currency	-10.8657
▁decisive	-10.8657
▁creek	-10.8658
▁engagement	-10.866
▁actress	-10.8662
▁subset	-10.8662
▁50%	-10.8666
▁camus	-10.8666
▁1925	-10.8667
▁beach	-10.8668
rv	-10.8669
▁chile	-10.867
bos	-10.8671
▁sri	-10.8672
▁temporary	-10.8673
▁murdered	-10.8675
▁bands	-10.8676
▁mike	-10.8684
generation	-10.8684
qa	-10.8684
▁regulations	-10.8685
▁rh	-10.8689
▁politically	-10.8693
▁tom	-10.8697
states	-10.8697
ude	-10.8699
used	-10.87
▁fragment	-10.8701
▁polymer	-10.8709
▁ross	-10.8712
▁len	-10.8713
▁prey	-10.8717
▁turning	-10.8721
▁explains	-10.8724
▁speaker	-10.8726
▁astronaut	-10.8726
pir	-10.8727
▁demanded	-10.8727
5,	-10.8728
▁aurochs	-10.8732
▁atlantis	-10.8732
▁driving	-10.8732
▁acre	-10.8736
▁apartment	-10.8737
▁1959	-10.8737
▁rum	-10.8739
▁tested	-10.8739
▁behalf	-10.8744
▁proclaimed	-10.8746
text	-10.8747
▁pack	-10.8747
ste	-10.8748
big	-10.8749
▁baptism	-10.8749
▁deaf	-10.8753
▁populated	-10.8758
government	-10.8762
plane	-10.8763
▁monument	-10.8764
▁iranian	-10.8768
▁pap	-10.8773
▁trace	-10.8773
▁neu	-10.8778
▁improvement	-10.8782
▁horn	-10.8783
▁window	-10.8786
▁fictional	-10.8791
▁listen	-10.8792
quest	-10.8793
erie	-10.8796
bru	-10.8799
▁49	-10.8801
▁lions	-10.8808
▁abbreviation	-10.8808
▁aberdare	-10.8808
▁sacrament	-10.8808
▁animated	-10.8808
▁berber	-10.8808
▁bubble	-10.8808
▁cluster	-10.8809
▁preference	-10.8809
▁bromine	-10.8809
kov	-10.881
▁evolutionary	-10.8812
▁requested	-10.8812
lines	-10.8812
▁simon	-10.8816
▁battlefield	-10.8816
▁wore	-10.8817
▁korea	-10.8818
▁rio	-10.8819
▁dissolved	-10.8823
▁consequences	-10.8827
▁max	-10.8834
▁teach	-10.8834
▁imported	-10.8835
▁composers	-10.8836
▁battles	-10.8837
▁indo	-10.8844
death	-10.8844
ero	-10.8857
▁stones	-10.8866
▁unity	-10.8869
▁precise	-10.887
▁rib	-10.8874
▁switch	-10.8878
▁autobiography	-10.8884
▁chekhov	-10.8884
▁mercury	-10.8884
▁rugby	-10.8884
▁unemployment	-10.8884
▁abundant	-10.8884
▁lombard	-10.8884
▁bardot	-10.8884
▁aerodynamic	-10.8884
▁psychological	-10.8884
▁barbuda	-10.8885
▁attested	-10.8885
▁fulfill	-10.8885
▁cappella	-10.8885
▁biographer	-10.8885
▁conquer	-10.8885
▁infections	-10.8885
▁eleven	-10.8886
▁completion	-10.8886
▁1957	-10.8888
▁remainder	-10.8888
▁sword	-10.8889
▁drives	-10.8889
▁uncle	-10.889
▁1926	-10.8891
box	-10.8893
▁ask	-10.8893
▁barb	-10.8896
▁modest	-10.8897
▁erected	-10.8903
▁channels	-10.8906
▁hear	-10.8909
▁alloys	-10.8909
▁weigh	-10.8911
ua	-10.8914
▁bias	-10.8914
lived	-10.8915
▁escaped	-10.8921
ison	-10.8922
name	-10.8922
▁desired	-10.8923
ör	-10.8924
▁guy	-10.8924
bet	-10.8928
▁introduce	-10.8935
▁gay	-10.8936
print	-10.8937
▁promise	-10.8942
▁option	-10.8944
▁controller	-10.8945
▁pipe	-10.8947
ked	-10.8951
▁progressive	-10.8952
▁sectors	-10.8956
▁median	-10.8958
▁zones	-10.8961
archaeopteryx	-10.8961
▁occupy	-10.8961
▁opportunities	-10.8961
▁quantity	-10.8961
▁harvest	-10.8961
▁agarose	-10.8962
▁austro	-10.8962
wn	-10.8963
▁maritime	-10.8963
▁isaac	-10.8964
▁davis	-10.8964
▁1953	-10.8966
▁landmark	-10.8966
tory	-10.8967
▁1913	-10.8967
▁electronics	-10.8971
▁regulation	-10.8971
▁architects	-10.8982
what	-10.8986
▁counterpart	-10.8987
▁saved	-10.8987
▁aware	-10.8989
vid	-10.8993
▁axioms	-10.8994
▁seal	-10.8995
"—	-10.9001
mid	-10.9001
▁ple	-10.9005
▁publications	-10.9007
▁mega	-10.901
lecommunications	-10.9011
▁anarchist	-10.9012
▁qu	-10.9021
▁advent	-10.9023
▁kingdoms	-10.9024
loss	-10.903
mara	-10.9031
▁alive	-10.9033
▁ms	-10.9037
▁overseas	-10.9039
▁nerve	-10.9039
▁plague	-10.904
▁gordon	-10.904
▁persecution	-10.9041
▁appointment	-10.9041
▁metaboli	-10.9042
▁informed	-10.9042
▁abner	-10.9042
▁infant	-10.9046
▁cre	-10.9046
cum	-10.9047
▁scientist	-10.9047
▁baptists	-10.9048
▁agamemnon	-10.905
▁maintaining	-10.9054
▁gathered	-10.9057
▁patriot	-10.9057
▁plac	-10.9059
▁personally	-10.9063
▁(5	-10.9065
▁belong	-10.9065
▁warning	-10.9065
▁efficient	-10.9066
▁cow	-10.9068
stream	-10.907
▁challenges	-10.907
feld	-10.9073
open	-10.9078
▁mod	-10.908
▁spend	-10.908
▁airports	-10.9082
gro	-10.9084
▁shut	-10.9087
▁segment	-10.9091
omorph	-10.9101
▁reverse	-10.9101
sey	-10.9102
gle	-10.9103
▁quick	-10.9104
▁alloy	-10.9108
itt	-10.9112
▁stores	-10.9113
▁confederacy	-10.9117
▁illinois	-10.9117
▁multiplication	-10.9117
▁vacuum	-10.9117
▁agencies	-10.9117
▁durrani	-10.9117
▁bureau	-10.9117
▁athlon	-10.9118
▁travelled	-10.912
rep	-10.9121
▁1938	-10.9122
▁harsh	-10.9123
▁jr	-10.9129
py	-10.9131
▁supplied	-10.9131
▁entering	-10.9133
prim	-10.9134
▁intense	-10.9141
haus	-10.9141
▁boats	-10.9142
present	-10.9144
▁demo	-10.9147
▁definitions	-10.9148
▁profile	-10.915
▁180	-10.915
complete	-10.9151
▁museums	-10.9153
sea	-10.9157
▁rein	-10.916
▁triple	-10.9162
▁gram	-10.9166
mac	-10.9169
rine	-10.9174
abba	-10.9175
▁observer	-10.9179
ela	-10.9179
▁codes	-10.9184
lem	-10.9185
▁korean	-10.9186
cycl	-10.9187
▁monk	-10.9187
▁lavoisier	-10.9196
▁symphony	-10.9196
▁burundi	-10.9196
▁coincide	-10.9196
▁fabric	-10.9196
▁acute	-10.9198
▁dependence	-10.9199
▁metallic	-10.92
▁1933	-10.9202
▁1915	-10.9206
▁reward	-10.9208
▁pages	-10.9211
tem	-10.9212
▁ariane	-10.9214
▁veterans	-10.9215
▁tied	-10.9215
400	-10.9228
mn	-10.9229
▁ethical	-10.923
▁tam	-10.9232
▁filed	-10.9235
▁broadcasting	-10.9237
–16	-10.9237
▁daughters	-10.924
▁appeals	-10.9241
▁deeply	-10.9243
▁fossils	-10.9245
▁dome	-10.9247
▁vessel	-10.9254
▁celebrate	-10.9255
▁reinforce	-10.9256
▁disputes	-10.9257
ched	-10.9258
▁shells	-10.9261
jun	-10.9262
▁lit	-10.927
▁falls	-10.9272
▁benedict	-10.9273
▁acquisition	-10.9275
▁hellenistic	-10.9275
▁jaguar	-10.9275
▁surprise	-10.9275
▁ongoing	-10.9277
▁mortality	-10.9277
▁tribal	-10.9277
▁duty	-10.928
▁2600	-10.9281
ope	-10.9281
▁1937	-10.9281
▁cad	-10.9286
▁efficiency	-10.9286
▁explosive	-10.9286
▁successive	-10.929
▁beethoven	-10.929
▁manufactured	-10.9292
▁strings	-10.9296
une	-10.9301
▁sensitive	-10.9308
natural	-10.9311
three	-10.9313
rach	-10.9313
▁fisher	-10.9314
▁commissioner	-10.9321
▁bru	-10.9327
▁treatments	-10.933
▁grade	-10.9335
gun	-10.9336
▁consequence	-10.9336
▁balkan	-10.9336
▁drag	-10.9339
1%	-10.9345
▁extinct	-10.9349
gia	-10.9349
▁athletic	-10.9355
▁furniture	-10.9355
▁carolla	-10.9355
▁fleming	-10.9355
▁liberation	-10.9355
▁abroad	-10.9356
▁fortress	-10.9357
▁saudi	-10.9358
▁pasha	-10.9358
▁repair	-10.9358
▁edict	-10.9359
atus	-10.936
▁2009.	-10.9363
▁graduate	-10.9364
▁temples	-10.9364
▁seized	-10.9367
▁42	-10.9367
wo	-10.937
▁kal	-10.9371
6,	-10.9372
five	-10.9379
▁kent	-10.9381
▁lamb	-10.9384
▁interpret	-10.9389
▁breaking	-10.9392
▁anna	-10.9394
correct	-10.9394
▁belonging	-10.9397
ops	-10.9397
its	-10.9398
shaped	-10.9399
▁rat	-10.9406
ending	-10.9411
hill	-10.9412
▁blow	-10.9412
▁imports	-10.9413
▁colleges	-10.9419
just	-10.9421
▁unsuccessful	-10.9421
▁macedonia	-10.9422
gul	-10.9422
▁geographic	-10.9424
▁powered	-10.9425
itz	-10.9427
och	-10.943
▁specimens	-10.9433
hil	-10.9433
▁arbitrage	-10.9436
▁danube	-10.9436
▁marlborough	-10.9436
▁relevant	-10.9436
▁skeleton	-10.9436
▁algiers	-10.9436
▁bandwidth	-10.9436
▁amphibians	-10.9436
▁readily	-10.9436
▁plains	-10.9437
▁golf	-10.9438
▁genera	-10.9439
▁raw	-10.9442
final	-10.9444
▁inherited	-10.9446
▁designer	-10.9446
▁laser	-10.9448
ort	-10.945
auto	-10.9451
800	-10.9454
▁shaped	-10.9455
▁manage	-10.9459
view	-10.9461
▁margin	-10.9473
▁gray	-10.9473
▁encountered	-10.9474
▁germans	-10.9477
▁wage	-10.9478
uous	-10.9482
▁sing	-10.9485
ml	-10.9486
bad	-10.9494
▁100,000	-10.9497
ika	-10.9499
▁catholics	-10.9499
eng	-10.95
▁prussia	-10.9502
▁oppos	-10.9508
▁gap	-10.951
▁pig	-10.9515
▁silk	-10.9517
▁celestial	-10.9517
▁economist	-10.9517
▁enormous	-10.9517
apatosaurus	-10.9517
▁arguing	-10.9517
▁avenue	-10.9517
▁russell	-10.9517
▁rescue	-10.9517
▁scandal	-10.9517
▁departure	-10.9517
▁surgery	-10.9518
▁truck	-10.9518
▁hypo	-10.9518
▁enforcement	-10.9518
▁accent	-10.9519
▁extraction	-10.952
▁1908	-10.952
▁translations	-10.9521
▁yu	-10.9522
▁1905	-10.9522
▁anderson	-10.9522
▁hugh	-10.9522
▁robot	-10.9522
▁looked	-10.9522
nor	-10.9526
▁situations	-10.9532
▁races	-10.9538
▁ep	-10.9539
pc	-10.9542
▁2008.	-10.9554
▁ai	-10.9555
load	-10.9558
▁comment	-10.9559
▁displays	-10.9563
▁complain	-10.9565
▁environments	-10.9572
love	-10.9577
lau	-10.958
▁cardinals	-10.9582
▁sig	-10.9582
▁celebration	-10.9585
▁coordinate	-10.9591
▁battleship	-10.9596
▁chemist	-10.9597
▁foods	-10.9597
▁additive	-10.9599
▁fifteen	-10.9599
▁garrison	-10.9599
▁petroleum	-10.9599
▁schweitzer	-10.9599
▁survival	-10.9599
▁zubaydah	-10.9599
▁anatomy	-10.9599
▁sentiment	-10.9599
▁unesco	-10.9599
▁emergence	-10.9599
▁trump	-10.9599
▁boundaries	-10.96
▁pillar	-10.9601
▁underlying	-10.9601
▁specified	-10.9604
▁feathers	-10.9605
▁1923	-10.9605
▁israeli	-10.9605
▁inhibitors	-10.9606
▁icon	-10.9606
▁minute	-10.9607
▁respective	-10.9607
▁shoot	-10.9609
▁alex	-10.9615
▁cord	-10.9618
▁gil	-10.962
▁introduc	-10.9626
aged	-10.9626
▁tram	-10.9628
▁derives	-10.9632
▁suggestion	-10.9632
▁flown	-10.9636
russian	-10.9639
▁feeling	-10.964
greek	-10.9641
▁11,	-10.9642
▁hang	-10.9642
▁volumes	-10.9644
▁volta	-10.9647
▁bak	-10.9655
▁equally	-10.9659
action	-10.9664
▁nationalist	-10.9672
▁boot	-10.9673
than	-10.9674
▁dealing	-10.9675
▁cauchy	-10.9682
▁sydney	-10.9682
▁deputy	-10.9682
▁abalone	-10.9682
▁venice	-10.9682
▁antonio	-10.9683
comm	-10.9683
▁trap	-10.9684
▁boom	-10.9686
▁prefer	-10.9687
▁1931	-10.9687
▁1922	-10.9689
▁findings	-10.9691
▁inhabited	-10.9697
ona	-10.9698
▁geographical	-10.9699
pon	-10.9703
▁dismissed	-10.9704
▁neurons	-10.9705
▁nile	-10.9705
sim	-10.9707
▁dogs	-10.9713
▁acorn	-10.9713
▁properly	-10.9718
▁eth	-10.9724
▁kant	-10.9724
▁graph	-10.9726
▁dec	-10.9727
ān	-10.9728
▁appoint	-10.9729
▁winds	-10.9732
▁traveled	-10.9733
best	-10.9733
▁collections	-10.9736
▁maintains	-10.974
▁rating	-10.9743
river	-10.9743
united	-10.9746
▁ancestor	-10.9755
▁destination	-10.9756
▁loyal	-10.9759
▁presentation	-10.9759
▁douglas	-10.9765
▁harbour	-10.9765
▁identification	-10.9765
▁precision	-10.9765
▁proclamation	-10.9765
▁sediment	-10.9765
▁consensus	-10.9765
▁evangelical	-10.9765
▁dylan	-10.9765
▁turks	-10.9766
▁boost	-10.9767
▁fraction	-10.9768
▁shifted	-10.9768
▁probe	-10.9768
▁shrine	-10.977
▁lecture	-10.9771
▁commercially	-10.9772
▁camps	-10.9773
▁demands	-10.9775
sat	-10.9775
▁mil	-10.9779
▁gre	-10.9782
mir	-10.9785
▁marsh	-10.9794
▁burial	-10.9797
▁pushed	-10.9797
yr	-10.9797
▁zu	-10.9801
▁plates	-10.9803
▁lineage	-10.9806
dos	-10.9809
written	-10.981
atur	-10.9816
▁helping	-10.9818
▁nova	-10.9818
▁eagle	-10.9822
ée	-10.9829
▁occasion	-10.9829
ologists	-10.9834
▁customers	-10.9837
▁marking	-10.9837
▁merchant	-10.9842
▁excess	-10.9847
▁apoptosis	-10.9849
▁comparable	-10.9849
▁examination	-10.9849
▁faculty	-10.9849
▁octavian	-10.9849
▁privilege	-10.9849
▁relativity	-10.9849
▁abydos	-10.9849
▁violation	-10.9849
▁injuries	-10.9849
▁gases	-10.985
▁adrenal	-10.985
▁victories	-10.985
▁mut	-10.9851
▁reader	-10.9851
▁1861	-10.9853
▁abolished	-10.9861
▁doses	-10.9865
usa	-10.987
▁realized	-10.9872
▁troy	-10.9873
▁2019.	-10.9874
▁2014.	-10.9874
▁honorary	-10.9877
▁43	-10.9884
▁earl	-10.9893
▁tim	-10.9895
political	-10.9895
main	-10.9896
chief	-10.9897
lli	-10.9898
▁sure	-10.9899
▁fatal	-10.99
▁joy	-10.99
nau	-10.9903
▁gone	-10.9903
▁crash	-10.9904
bird	-10.9905
note	-10.9909
▁aside	-10.9913
▁designers	-10.9916
▁genes	-10.992
▁ceo	-10.992
▁willing	-10.992
iti	-10.9922
music	-10.9924
▁sul	-10.9927
▁8-	-10.9927
▁restaurant	-10.9929
▁opponent	-10.9929
road	-10.993
▁!	-10.993
▁acapulco	-10.9934
▁accompany	-10.9934
▁allegiance	-10.9934
▁asymptote	-10.9934
▁cognitive	-10.9934
▁grothendieck	-10.9934
▁wheat	-10.9934
▁widow	-10.9934
▁liberty	-10.9934
▁1862	-10.9934
▁dramatically	-10.9936
▁aleut	-10.9936
▁nitride	-10.9936
▁rite	-10.9937
▁mood	-10.9939
▁1901	-10.9939
▁rent	-10.9941
▁maxim	-10.9941
roll	-10.9943
cies	-10.9946
▁sho	-10.9952
▁facilitate	-10.9955
▁andalusian	-10.9955
▁steven	-10.9967
▁certainly	-10.9967
▁bare	-10.9969
▁tun	-10.9971
him	-10.9972
▁evening	-10.9975
,500	-10.9977
omic	-10.9981
–6	-10.9984
▁legs	-10.9987
▁fallen	-10.999
▁collaborat	-10.9992
icus	-10.9994
▁settle	-11
▁decide	-11.0006
▁mig	-11.0007
▁thi	-11.0008
▁judges	-11.0011
▁assembled	-11.0019
▁christopher	-11.0019
▁enlightenment	-11.0019
▁expense	-11.0019
▁promoting	-11.0019
▁technological	-11.0019
▁signature	-11.0019
▁defining	-11.0019
▁gothic	-11.0019
▁exhaust	-11.0019
peptide	-11.0019
▁clause	-11.002
▁emission	-11.0021
▁competitions	-11.0021
▁modulation	-11.0021
▁attendance	-11.0022
▁voltage	-11.0022
▁scholarship	-11.0022
core	-11.0022
gged	-11.0023
▁govern	-11.0025
▁getting	-11.0026
▁cpc	-11.0029
▁generations	-11.003
▁comments	-11.0032
▁bacterial	-11.0032
▁reasoning	-11.0035
took	-11.0037
vir	-11.0038
▁rally	-11.0039
▁deity	-11.004
tropic	-11.0041
▁symbolic	-11.0042
▁descended	-11.0045
rud	-11.0046
▁armored	-11.0046
▁2020.	-11.0051
mond	-11.0056
7,000	-11.0058
▁asl	-11.0064
▁angels	-11.0066
▁eat	-11.0067
▁exploit	-11.0067
group	-11.0068
▁surfaces	-11.007
▁attain	-11.0072
▁dealer	-11.0076
▁olympics	-11.0078
600	-11.0086
▁sen	-11.0087
▁defines	-11.009
▁athenian	-11.0105
▁comprehensive	-11.0105
▁emerging	-11.0105
▁hemisphere	-11.0105
▁mitchell	-11.0105
▁ukraine	-11.0105
▁whilst	-11.0105
▁variance	-11.0105
▁inflation	-11.0106
▁tongue	-11.0106
▁gallery	-11.0106
▁ign	-11.0107
▁akkadian	-11.0107
▁serial	-11.0108
▁sync	-11.0109
▁accessible	-11.0109
▁biology	-11.0109
▁stick	-11.011
▁seeds	-11.011
▁bitter	-11.0113
▁flower	-11.0116
▁coins	-11.0118
▁printing	-11.0121
iii	-11.0124
cf	-11.0125
▁firing	-11.0126
▁methodist	-11.0127
▁agreements	-11.0128
▁consistently	-11.0131
ock	-11.0146
wh	-11.0153
▁bla	-11.0153
▁confirm	-11.0154
computer	-11.0155
emi	-11.0156
hungarian	-11.0156
empt	-11.0156
design	-11.0161
horn	-11.0165
▁2007.	-11.0172
brand	-11.0173
media	-11.0174
▁jam	-11.0179
▁2017.	-11.018
tia	-11.0182
▁extends	-11.0182
▁quin	-11.0185
hour	-11.0186
▁otto	-11.019
rio	-11.0191
▁dragon	-11.0192
▁disrupt	-11.0192
▁divorce	-11.0192
▁monastic	-11.0192
▁withdrew	-11.0192
▁climb	-11.0192
▁automobile	-11.0193
▁munich	-11.0193
▁communicate	-11.0193
▁transmitted	-11.0193
▁revised	-11.0194
▁isotope	-11.0194
▁slope	-11.0195
▁decree	-11.0199
kha	-11.0199
▁carries	-11.02
▁1870	-11.0201
▁1830	-11.0205
▁sheep	-11.0209
▁altar	-11.0211
▁bruce	-11.0213
▁(6	-11.0215
▁ties	-11.0217
rative	-11.022
▁relat	-11.0222
▁facing	-11.0226
metric	-11.0236
▁wounded	-11.0239
rh	-11.0241
▁denominations	-11.0242
lord	-11.0248
▁kg	-11.0249
▁47	-11.0249
▁emotional	-11.0251
▁arrive	-11.0261
▁cel	-11.0262
▁receiver	-11.0264
cast	-11.0269
▁mines	-11.0273
grad	-11.0277
▁competing	-11.028
▁syndrome	-11.028
▁worst	-11.028
▁irregular	-11.028
▁cambridge	-11.028
▁harbor	-11.028
▁interval	-11.0283
▁oscar	-11.0283
▁southeastern	-11.0287
prop	-11.0288
▁favorite	-11.0288
▁achievement	-11.029
byte	-11.0293
▁similarities	-11.0293
▁kra	-11.0295
only	-11.0295
hra	-11.0297
▁repeatedly	-11.0299
▁homes	-11.0304
▁neutron	-11.0305
arc	-11.0307
▁ara	-11.0309
▁$4	-11.0313
▁closest	-11.0313
▁faction	-11.0313
▁labs	-11.0319
▁homer	-11.0324
▁metric	-11.0325
aki	-11.0328
▁columns	-11.0328
▁secured	-11.0331
▁extending	-11.0333
nova	-11.0335
▁assisted	-11.0335
tended	-11.034
bid	-11.0345
–4	-11.0351
zu	-11.0352
▁dust	-11.036
▁bon	-11.0365
▁lover	-11.0366
▁hurricane	-11.0369
▁jupiter	-11.0369
▁ulvaeus	-11.0369
▁vivaldi	-11.0369
▁epithet	-11.0369
▁carved	-11.0369
▁freshwater	-11.0369
▁immigration	-11.037
▁decoration	-11.037
▁raising	-11.037
▁9,	-11.037
▁finland	-11.0371
▁enzyme	-11.0375
▁gro	-11.0376
▁sick	-11.0376
▁1927	-11.0378
▁fever	-11.0379
bron	-11.0379
▁pine	-11.038
▁journalist	-11.0382
▁enhanced	-11.0382
▁riot	-11.0387
governing	-11.0389
▁rav	-11.039
person	-11.0398
▁anarchists	-11.04
▁prepare	-11.0404
7,	-11.0406
▁digits	-11.0407
▁ends	-11.0407
mass	-11.0409
▁chronic	-11.0411
▁imply	-11.0412
▁falling	-11.0414
▁5,	-11.0414
▁portray	-11.0416
itic	-11.0416
▁questioned	-11.042
▁ward	-11.0423
▁approached	-11.0438
▁schedule	-11.0438
▁sparta	-11.0439
▁photographs	-11.0439
▁heating	-11.0443
▁ahead	-11.0444
▁2010.	-11.0449
smith	-11.045
▁posit	-11.0453
▁lane	-11.0454
▁caliph	-11.0455
▁burned	-11.0457
anthropic	-11.0458
▁combining	-11.0458
▁compiler	-11.0458
▁preservation	-11.0458
▁caesium	-11.0458
▁mystery	-11.0458
▁pulse	-11.0458
▁ecological	-11.0458
▁catalogue	-11.0459
▁airplane	-11.0462
▁permission	-11.0462
▁viking	-11.0464
▁1932	-11.0465
▁1936	-11.0465
▁brick	-11.0465
▁fate	-11.0467
▁quoted	-11.0467
amazing	-11.0468
rou	-11.047
▁vega	-11.0473
establishing	-11.0474
▁2012.	-11.0478
ologist	-11.0479
▁push	-11.048
borg	-11.0481
hof	-11.0482
▁mul	-11.0485
▁8,	-11.0487
▁gran	-11.0489
ddle	-11.0492
lov	-11.0499
▁fairly	-11.0503
▁weekly	-11.0503
▁27,	-11.0508
bor	-11.0508
▁speeds	-11.0508
former	-11.0514
▁manufacture	-11.0519
▁observe	-11.0519
▁dick	-11.052
▁comprises	-11.0523
▁directory	-11.0524
court	-11.0524
▁arian	-11.0524
-4	-11.0525
▁saxon	-11.0526
tius	-11.0526
▁praise	-11.053
mov	-11.0532
▁statues	-11.0534
eptic	-11.0537
▁inhibit	-11.0545
▁ealdred	-11.0548
▁legitimate	-11.0548
▁libraries	-11.0548
▁margaret	-11.0548
▁precursor	-11.0548
▁psychology	-11.0548
▁antoninus	-11.0548
▁dubbed	-11.0548
▁kelly	-11.0548
▁corresponds	-11.0549
▁arcade	-11.0549
▁pump	-11.0549
▁studios	-11.055
▁commentary	-11.055
▁polarization	-11.055
▁insects	-11.0551
▁emissions	-11.0551
▁prepar	-11.0552
▁effectiveness	-11.0555
▁lion	-11.0556
▁barium	-11.0557
▁raj	-11.0559
▁refugees	-11.056
▁proportional	-11.0564
▁finish	-11.0565
▁everyone	-11.0566
▁soldier	-11.0566
miss	-11.0571
▁resolved	-11.0575
");	-11.0578
▁oak	-11.0579
nius	-11.0586
▁throw	-11.0588
color	-11.06
▁andhra	-11.0601
▁johann	-11.0601
▁accomplish	-11.0605
culture	-11.0608
▁fix	-11.0619
yne	-11.0619
▁funded	-11.0625
rite	-11.0626
odi	-11.063
▁shu	-11.0634
▁ruth	-11.0638
▁monasteries	-11.0639
▁pandemic	-11.0639
▁phoenix	-11.0639
▁playwright	-11.0639
▁convey	-11.0639
▁anguilla	-11.0639
▁installation	-11.0639
▁triangle	-11.0639
▁colonel	-11.0642
kon	-11.0643
▁virus	-11.0643
rock	-11.0645
▁deposit	-11.065
▁warriors	-11.065
▁venus	-11.0651
▁remember	-11.0655
▁designation	-11.0655
▁2018.	-11.0659
▁reformed	-11.066
enberg	-11.0664
▁provisions	-11.0667
andalus	-11.0675
▁deities	-11.0676
▁commented	-11.0677
▁chat	-11.0678
uni	-11.0679
talk	-11.0685
nar	-11.0686
▁detected	-11.0687
▁calculations	-11.0687
tl	-11.0697
populated	-11.0699
▁sid	-11.07
▁thermo	-11.0702
▁extract	-11.0704
vari	-11.0706
▁2013.	-11.0707
▁suburbs	-11.0708
speed	-11.0708
▁exclusive	-11.0716
zh	-11.0717
▁intercept	-11.0719
▁photograph	-11.072
uda	-11.0723
imp	-11.0725
▁acted	-11.0728
▁revenues	-11.0729
▁abscess	-11.0731
▁acceleration	-11.0731
▁ambassador	-11.0731
▁cemetery	-11.0731
▁treasure	-11.0731
▁happy	-11.0731
▁hydroxide	-11.0731
▁prospect	-11.0731
▁peasant	-11.0731
▁empty	-11.0731
▁singular	-11.0731
▁telegraph	-11.0731
▁crude	-11.0731
▁bernard	-11.0732
▁separately	-11.0733
uv	-11.0734
▁covid	-11.0734
▁batting	-11.0735
tell	-11.0735
▁suspended	-11.0736
▁52	-11.0738
▁complicated	-11.0739
▁strongest	-11.0741
tom	-11.0742
▁adhere	-11.0744
▁kim	-11.0748
▁genres	-11.0748
▁emperors	-11.0749
teen	-11.075
▁fill	-11.075
▁operator	-11.0751
bot	-11.0753
▁reversed	-11.0754
▁prohibited	-11.0755
flu	-11.0756
▁hir	-11.0759
▁definite	-11.0759
oi	-11.076
▁clothing	-11.0763
istan	-11.077
mail	-11.077
super	-11.0807
▁destroyer	-11.0812
▁rough	-11.0813
▁andré	-11.0814
▁cub	-11.0815
▁mali	-11.0817
ante	-11.0818
8,000	-11.082
▁cyprus	-11.0823
▁córdoba	-11.0823
▁julius	-11.0823
▁nutrient	-11.0823
▁applies	-11.0823
▁violin	-11.0823
▁inherent	-11.0823
▁steiner	-11.0823
▁aftermath	-11.0823
▁wavelength	-11.0824
▁appellat	-11.0824
▁crack	-11.0824
▁monetar	-11.0824
▁publish	-11.0826
▁layout	-11.0826
▁interact	-11.0826
▁buck	-11.0827
▁feast	-11.0828
▁henri	-11.0829
tech	-11.0829
$1	-11.0829
▁alpine	-11.0829
▁starred	-11.0831
▁occasions	-11.0831
nov	-11.0834
▁prop	-11.0839
▁economics	-11.0842
▁cardinal	-11.0843
▁traced	-11.0847
▁eve	-11.085
▁earning	-11.0858
▁demographics	-11.0858
5)	-11.0859
▁messages	-11.0863
▁heads	-11.087
lex	-11.0871
▁didn	-11.0878
9,	-11.0884
▁que	-11.0886
▁700	-11.0892
members	-11.0893
selling	-11.0894
▁episodes	-11.09
▁latest	-11.09
▁numerical	-11.0907
ghan	-11.0908
▁tale	-11.0913
imi	-11.0916
▁amplifier	-11.0917
▁measuring	-11.0917
▁rhetoric	-11.0917
▁treasury	-11.0917
▁maneuver	-11.0917
▁powder	-11.0917
▁ticket	-11.0917
▁renowned	-11.0917
▁wisdom	-11.0917
▁affirm	-11.0917
▁counsel	-11.0917
▁residue	-11.0917
▁gamma	-11.0917
▁naming	-11.0917
▁solvent	-11.0917
▁collins	-11.0918
▁retirement	-11.0918
▁signing	-11.0919
▁fourteen	-11.092
▁coverage	-11.0922
▁berg	-11.0923
▁1911	-11.0929
▁crimes	-11.0938
alt	-11.0938
▁primitive	-11.0938
▁moves	-11.094
▁extant	-11.0941
▁maha	-11.0945
▁substantially	-11.0946
▁asphalt	-11.0949
▁publisher	-11.095
step	-11.095
▁cardi	-11.0951
▁sher	-11.0955
▁belonged	-11.0958
▁gaul	-11.0967
▁acidic	-11.0976
▁hawk	-11.0977
▁repeat	-11.0977
pop	-11.098
piece	-11.0983
nine	-11.0986
nell	-11.0987
▁declare	-11.0993
▁modes	-11.0996
▁mail	-11.0996
▁eric	-11.0997
▁receives	-11.0999
–1	-11.0999
north	-11.1005
ush	-11.1005
ulf	-11.101
▁acrylic	-11.1011
▁nonetheless	-11.1011
▁vancouver	-11.1011
▁bauhaus	-11.1011
▁flank	-11.1011
▁ultra	-11.1011
▁abelian	-11.1011
▁criticised	-11.1012
▁algol	-11.1013
▁excessive	-11.1014
▁legally	-11.1014
▁pierre	-11.1016
▁printer	-11.1017
iness	-11.1018
▁hans	-11.1018
▁breath	-11.1018
lp	-11.1019
▁elementary	-11.1022
▁7,	-11.1024
▁irre	-11.1028
▁partners	-11.1029
▁courses	-11.103
▁newer	-11.1031
▁prevented	-11.1032
▁tactics	-11.1033
▁rings	-11.1036
▁absorbed	-11.1038
▁uni	-11.1039
▁math	-11.104
▁almond	-11.1042
▁tactical	-11.1048
▁600	-11.1048
both	-11.105
▁counted	-11.1059
uf	-11.1061
▁souls	-11.1069
▁editions	-11.107
fc	-11.1071
night	-11.1075
▁lasting	-11.1077
central	-11.1079
▁operators	-11.1089
▁accumulat	-11.109
▁incorporate	-11.109
▁nm	-11.1093
▁recordings	-11.1096
▁sac	-11.1098
▁directions	-11.1098
▁import	-11.1099
▁kay	-11.1099
▁excellent	-11.1106
▁striking	-11.1106
▁temporarily	-11.1106
▁franz	-11.1106
▁flash	-11.1107
▁commitment	-11.1108
▁caliphate	-11.1109
▁conviction	-11.111
▁filmmaker	-11.1112
▁leaf	-11.1113
▁harry	-11.1114
bla	-11.1116
▁2023	-11.1116
▁jurisdictions	-11.1118
▁joining	-11.1118
▁reformation	-11.112
▁stake	-11.1123
▁priority	-11.1124
osaurus	-11.1126
self	-11.1126
▁prevention	-11.1127
▁(10	-11.1127
▁balkans	-11.113
▁spear	-11.1136
established	-11.1136
▁prompted	-11.1137
▁resource	-11.1138
▁catholicism	-11.1139
wed	-11.114
▁requirement	-11.1143
▁stamp	-11.1144
oll	-11.1147
col	-11.1147
▁severely	-11.1149
▁jun	-11.1149
–15	-11.115
ogenic	-11.1151
▁spi	-11.1153
▁$5	-11.1155
▁recalled	-11.1157
▁angolan	-11.1158
▁friendly	-11.1162
▁mathematicians	-11.1163
▁assur	-11.1166
def	-11.1168
ito	-11.1168
worth	-11.1171
▁bavarian	-11.1171
▁exceptions	-11.1171
eh	-11.1175
apollo	-11.1175
▁seconds	-11.1178
▁fusion	-11.1178
aria	-11.1181
▁feder	-11.1187
▁tales	-11.1189
▁blocks	-11.1189
▁adams	-11.1192
▁12,	-11.1193
▁adds	-11.1195
▁fried	-11.12
▁tiberius	-11.1202
▁sicily	-11.1202
▁penicillin	-11.1202
▁hydrocarbon	-11.1203
▁minimal	-11.1203
▁assessment	-11.1205
▁foster	-11.1205
acacia	-11.1206
▁1903	-11.1207
▁reliable	-11.1208
▁programmer	-11.1208
▁1921	-11.1212
▁1840	-11.1214
▁consumed	-11.1214
roc	-11.1215
▁atmospheric	-11.1215
▁reef	-11.1216
▁condemned	-11.1218
▁lacking	-11.1227
▁shapes	-11.1228
▁employer	-11.1229
▁nano	-11.1231
▁serb	-11.1235
▁knight	-11.1235
wer	-11.1235
▁tag	-11.1237
▁bars	-11.1237
oni	-11.1238
▁accomplished	-11.1239
▁options	-11.1239
▁victor	-11.1242
▁monuments	-11.1244
▁lighter	-11.1245
▁database	-11.1245
eau	-11.1249
▁practiced	-11.1249
–7	-11.1251
▁hut	-11.1252
▁kat	-11.1254
thal	-11.1258
ello	-11.1259
▁painter	-11.1261
▁ec	-11.1262
boat	-11.1263
▁gut	-11.1264
▁abandon	-11.1265
▁resolve	-11.1272
minute	-11.1275
▁walking	-11.128
atom	-11.1281
▁manifest	-11.1285
▁restore	-11.1286
lift	-11.1288
▁collective	-11.1288
500	-11.1288
issa	-11.1294
▁intent	-11.1296
▁24,	-11.1297
▁sovereign	-11.1298
▁accommodate	-11.1299
▁expelled	-11.1299
▁lovelace	-11.1299
▁nephew	-11.1299
▁ordained	-11.1299
▁pollution	-11.1299
▁ignored	-11.1299
▁overthrow	-11.1299
▁implies	-11.1299
▁aquatic	-11.13
▁interference	-11.13
▁improving	-11.13
▁decorated	-11.13
▁blend	-11.13
▁worse	-11.1301
▁garner	-11.1302
▁gill	-11.1303
▁revision	-11.1306
▁eliminate	-11.1306
▁virtual	-11.1308
ural	-11.1308
third	-11.1308
▁plum	-11.131
▁numerals	-11.1313
▁handling	-11.1313
▁antony	-11.1317
▁cargo	-11.1318
▁personality	-11.1323
wise	-11.1326
bble	-11.1327
▁colon	-11.1328
▁distances	-11.1328
▁receptor	-11.1333
▁cher	-11.1333
▁norman	-11.1342
▁traces	-11.1342
▁altered	-11.1352
fort	-11.1355
▁targeted	-11.1359
ophi	-11.1362
▁antipsychotics	-11.1363
▁expanding	-11.1364
wide	-11.1369
▁banking	-11.1373
▁deny	-11.1373
▁wearing	-11.1378
▁tone	-11.1379
▁mun	-11.1379
▁breeding	-11.138
▁pull	-11.1381
wind	-11.1388
oro	-11.1389
▁2021.	-11.1389
▁lectures	-11.139
franc	-11.1393
▁forum	-11.1395
▁complement	-11.1396
▁factions	-11.1397
▁drain	-11.1397
▁aegina	-11.1397
▁edinburgh	-11.1397
▁kentucky	-11.1397
▁sophisticated	-11.1397
▁vulnerable	-11.1397
▁armament	-11.1397
▁duchy	-11.1397
▁aeneas	-11.1398
▁floating	-11.1398
▁awareness	-11.1399
▁honey	-11.14
▁geology	-11.14
▁peaceful	-11.1402
hosted	-11.1403
▁1867	-11.1404
▁archer	-11.1405
▁amines	-11.1406
aqueous	-11.1406
▁pike	-11.1408
▁ceased	-11.1411
▁persuaded	-11.1412
▁shops	-11.1412
mé	-11.1413
▁resin	-11.1414
▁discontinued	-11.1416
▁1800	-11.1416
▁colours	-11.1418
▁marc	-11.1418
▁oversee	-11.1419
real	-11.142
▁grass	-11.142
mut	-11.142
gno	-11.1422
▁suspected	-11.1422
▁thanks	-11.1427
▁gem	-11.1428
▁appearing	-11.1429
▁developments	-11.1434
▁arrangements	-11.1436
▁scripture	-11.1437
illo	-11.1437
▁hind	-11.1451
▁unlikely	-11.1455
▁cer	-11.1457
fit	-11.1459
▁shak	-11.146
uli	-11.1461
▁hoped	-11.1464
▁usa	-11.1464
utter	-11.1465
▁lev	-11.1471
front	-11.1472
president	-11.1472
especially	-11.1472
april	-11.1473
tim	-11.1476
▁10,	-11.1476
▁mir	-11.148
region	-11.148
▁missing	-11.148
▁liver	-11.1481
ender	-11.1484
▁induced	-11.1493
▁patch	-11.1495
▁adapt	-11.1496
▁aggressive	-11.1496
▁alkaloids	-11.1496
▁barcelona	-11.1496
▁berkelium	-11.1496
▁conversation	-11.1496
▁frequencies	-11.1496
▁inclusion	-11.1496
▁satisfy	-11.1496
▁umayyad	-11.1496
▁impressed	-11.1496
▁turkic	-11.1496
▁outdoor	-11.1497
▁abacus	-11.1497
▁azores	-11.1497
▁casualties	-11.1497
▁antioxidant	-11.1497
▁abbasid	-11.1497
▁bottle	-11.1497
▁rubber	-11.1498
▁cellular	-11.1499
iliad	-11.1501
▁interpretations	-11.1501
hat	-11.1504
▁manga	-11.1506
amide	-11.1506
▁bead	-11.1508
tank	-11.151
▁delivery	-11.1517
bell	-11.152
▁solely	-11.1521
▁gathering	-11.1523
▁activists	-11.1526
▁buses	-11.1531
▁compris	-11.1533
etta	-11.1533
▁66	-11.1536
▁"(	-11.154
▁parameters	-11.1542
▁reflects	-11.1548
hold	-11.1548
arab	-11.1552
▁flora	-11.1558
▁sponsor	-11.1561
▁faces	-11.1563
▁sad	-11.1566
▁fail	-11.1569
▁poorly	-11.1571
▁topics	-11.1572
▁driver	-11.1572
assyrian	-11.1573
philosophers	-11.1577
election	-11.1581
▁obvious	-11.1582
▁feeding	-11.1584
▁eventual	-11.1585
▁egyptians	-11.1586
ulus	-11.1588
▁inventor	-11.1589
▁fruits	-11.1594
▁tension	-11.1594
▁aboard	-11.1595
kara	-11.1595
▁aspartame	-11.1596
▁petition	-11.1596
▁pharmaceutical	-11.1596
▁replied	-11.1596
▁vocabulary	-11.1596
▁statute	-11.1596
▁stanley	-11.1596
▁aragonese	-11.1597
▁decorative	-11.1597
▁smoke	-11.1597
▁allegations	-11.1597
▁ohio	-11.1597
▁grandfather	-11.1598
has	-11.1601
▁1868	-11.1603
▁swing	-11.1603
▁illustration	-11.1604
▁1865	-11.1605
wick	-11.1606
▁artwork	-11.1608
▁conceived	-11.1608
▁elevated	-11.1609
▁achaemenid	-11.161
▁households	-11.1612
▁unified	-11.1612
▁indication	-11.1612
▁organs	-11.1614
▁20%	-11.1617
▁bun	-11.1618
▁contribut	-11.1618
▁2011.	-11.1619
aa	-11.1624
▁illustrated	-11.1627
▁13,	-11.1627
▁advocate	-11.1627
▁selective	-11.163
cid	-11.1637
▁blu	-11.1637
▁shin	-11.164
writers	-11.1641
fully	-11.1641
▁meal	-11.1643
▁deer	-11.1648
▁aix	-11.1652
▁delayed	-11.1656
▁senators	-11.1661
▁marie	-11.1665
lite	-11.1666
▁participants	-11.1673
disc	-11.1674
capitalism	-11.1678
eff	-11.1678
▁organize	-11.168
▁alp	-11.168
▁masters	-11.169
▁dimensions	-11.169
▁achill	-11.1691
oct	-11.1691
left	-11.1692
tian	-11.1697
▁ambrosius	-11.1697
▁arriving	-11.1697
▁confused	-11.1697
▁contrary	-11.1697
▁serotonin	-11.1697
▁fifty	-11.1697
▁excavation	-11.17
▁ascent	-11.17
▁strengthen	-11.1701
▁admit	-11.1703
▁1951	-11.1703
▁detection	-11.1703
apa	-11.1704
▁starring	-11.1704
▁tissues	-11.1705
▁1934	-11.1705
▁spite	-11.1706
▁wake	-11.1706
▁mcc	-11.1706
▁freed	-11.1708
▁1916	-11.1708
▁destinations	-11.1709
▁lin	-11.1709
▁yields	-11.1711
▁bbs	-11.1711
linear	-11.1713
▁indies	-11.1713
▁unix	-11.1714
cla	-11.1714
rise	-11.1714
link	-11.1715
▁settings	-11.1718
▁detector	-11.1719
▁governors	-11.172
vet	-11.1722
plan	-11.1723
vision	-11.1724
▁legion	-11.1725
▁lac	-11.1727
▁forty	-11.1731
▁lamp	-11.1735
▁ascend	-11.1739
▁premiere	-11.1745
usually	-11.1754
▁14,	-11.1757
▁suppress	-11.1762
▁defeating	-11.1764
gam	-11.1765
▁recall	-11.1767
▁prisoner	-11.177
▁tight	-11.177
friend	-11.1778
ller	-11.178
▁pursue	-11.178
▁var	-11.1781
▁limb	-11.1782
▁depictions	-11.1783
▁supports	-11.1784
▁pleas	-11.1788
▁trains	-11.1789
▁turns	-11.1791
ois	-11.1792
▁circulat	-11.1796
▁linguist	-11.1797
▁echo	-11.1798
▁charlemagne	-11.18
▁drought	-11.18
▁floppy	-11.18
▁guthrie	-11.18
▁imprisoned	-11.18
▁macintosh	-11.18
▁nicholas	-11.18
▁occurrence	-11.18
▁phoenician	-11.18
▁yankees	-11.18
▁charlotte	-11.18
▁revelation	-11.18
▁toriyama	-11.18
▁renewed	-11.18
▁eternal	-11.18
▁cosmic	-11.18
▁attila	-11.18
▁sovereignty	-11.1801
▁colonists	-11.1801
▁sudan	-11.1801
▁internationally	-11.1803
▁uprising	-11.1804
▁aalto	-11.1805
▁chipset	-11.1806
▁republicans	-11.1807
chromatic	-11.1808
▁harmony	-11.1809
▁playoff	-11.181
▁grandson	-11.181
▁vegetables	-11.1811
▁twentieth	-11.1813
▁timur	-11.1814
▁mandate	-11.1815
▁coastline	-11.1818
▁sculptures	-11.1819
▁prose	-11.1819
–10	-11.182
▁herbert	-11.1821
comb	-11.1826
▁portions	-11.1827
▁smallest	-11.1827
▁lib	-11.1833
▁finds	-11.1835
gard	-11.1837
▁21,	-11.184
|17	-11.1842
▁gear	-11.1848
▁calculation	-11.1848
ivb	-11.185
▁ensu	-11.1854
ferr	-11.1855
cip	-11.1858
▁julian	-11.1867
▁movies	-11.1868
▁bearing	-11.1876
craft	-11.1878
▁jay	-11.1879
▁cooking	-11.1887
though	-11.1889
▁suffix	-11.1892
▁gardens	-11.1892
▁prophet	-11.1893
▁lip	-11.1895
▁monte	-11.1897
▁neutrons	-11.1898
▁achievements	-11.1898
lac	-11.1898
pec	-11.1901
▁bicycles	-11.1902
▁onwards	-11.1902
▁freely	-11.1903
▁aeschylus	-11.1903
▁alhazen	-11.1903
▁almoravid	-11.1903
▁calcium	-11.1903
▁closure	-11.1903
▁composite	-11.1903
▁efficacy	-11.1903
▁elephant	-11.1903
▁peripheral	-11.1903
▁empirical	-11.1903
▁hidden	-11.1903
▁declaring	-11.1903
▁snake	-11.1903
▁limestone	-11.1903
▁thrust	-11.1903
▁cernan	-11.1903
▁shopping	-11.1903
▁bitola	-11.1904
▁bromide	-11.1906
divi	-11.1906
▁spark	-11.1907
▁seville	-11.1907
▁outstanding	-11.1907
▁charity	-11.1908
▁lovell	-11.1908
▁agp	-11.1909
▁clone	-11.1911
▁bohr	-11.1912
▁youngest	-11.1915
▁proceed	-11.1918
▁terrestrial	-11.1919
▁1850	-11.192
recipients	-11.1921
▁pursued	-11.1922
▁juan	-11.1925
▁alcoholism	-11.1925
▁nin	-11.193
▁goddesses	-11.1931
▁hippo	-11.1932
▁reside	-11.1932
▁allegedly	-11.1932
stadt	-11.1938
▁malay	-11.1939
▁controllers	-11.1942
yer	-11.1943
▁transported	-11.1944
▁warner	-11.1947
▁26,	-11.1951
kom	-11.1952
▁brooks	-11.1953
▁2005.	-11.1953
▁patient	-11.1955
▁urge	-11.1956
▁comics	-11.196
▁baker	-11.1967
tile	-11.1976
▁fern	-11.1978
nick	-11.198
▁leo	-11.1981
▁centered	-11.1987
pie	-11.1988
▁andrea	-11.1989
▁kan	-11.1991
▁examine	-11.1994
▁tune	-11.1994
▁audiences	-11.2003
▁journalists	-11.2003
▁0.0	-11.2005
▁ambiguity	-11.2007
▁arbitrary	-11.2007
▁compilation	-11.2007
▁olympia	-11.2007
▁pradesh	-11.2007
▁qualities	-11.2007
▁welfare	-11.2007
▁intensity	-11.2007
▁diamondbacks	-11.2007
▁removing	-11.2007
▁edited	-11.2007
▁martyr	-11.2007
▁nationwide	-11.2008
▁shipping	-11.2009
▁detective	-11.2011
▁1904	-11.2012
▁ally	-11.2012
▁cubic	-11.2013
▁58	-11.2013
urged	-11.2016
▁1935	-11.2016
▁highlands	-11.2016
▁butt	-11.2018
▁tire	-11.202
360	-11.2021
bio	-11.2028
taking	-11.2028
▁admiral	-11.2029
▁basket	-11.2029
ibility	-11.2031
▁propose	-11.2032
▁files	-11.2033
▁175	-11.2034
berry	-11.2039
▁originate	-11.2042
leu	-11.2046
▁conception	-11.2048
▁literally	-11.2048
mul	-11.2051
arg	-11.2052
▁conventions	-11.2062
qi	-11.2064
▁resemble	-11.2067
▁centres	-11.2069
vat	-11.2071
-7	-11.2073
male	-11.2073
▁paying	-11.2077
▁trigger	-11.2078
▁prompt	-11.2078
ema	-11.2086
▁khal	-11.209
▁sung	-11.209
hum	-11.2101
nom	-11.2101
ote	-11.2103
▁anonymous	-11.2112
▁czech	-11.2112
▁voluntary	-11.2112
▁assembler	-11.2112
▁oxidiz	-11.2112
▁submarine	-11.2112
▁actinium	-11.2112
propelled	-11.2112
▁sketch	-11.2112
▁fauna	-11.2113
▁coefficient	-11.2113
▁disagreement	-11.2113
round	-11.2114
▁discoveries	-11.2114
▁conceptual	-11.2115
▁rivalry	-11.2117
▁salmon	-11.2119
▁bcd	-11.2119
▁1898	-11.212
▁1896	-11.212
▁abdul	-11.2121
▁witnesses	-11.2121
▁40%	-11.2121
▁assets	-11.2123
military	-11.2124
raz	-11.2125
▁(14	-11.2125
▁scattered	-11.2129
▁syriac	-11.2129
▁organised	-11.2131
▁inland	-11.2132
▁5%	-11.2134
▁serbian	-11.2135
▁doubles	-11.2138
▁eliminated	-11.2148
▁rot	-11.215
orum	-11.2152
rene	-11.2157
▁kon	-11.2168
▁recommend	-11.2168
▁computation	-11.2173
▁attraction	-11.2181
▁mile	-11.2184
▁lan	-11.2186
chem	-11.2191
park	-11.2192
public	-11.2196
▁guarantee	-11.2199
tti	-11.2201
gha	-11.2203
walk	-11.2203
foot	-11.2204
▁informal	-11.2205
|21	-11.2209
product	-11.2218
▁pronoun	-11.2218
▁administrator	-11.2218
▁evident	-11.2218
▁swift	-11.2218
▁wollstonecraft	-11.2218
▁archaeologist	-11.2218
▁borrowed	-11.2218
▁discrimination	-11.2218
▁enslaved	-11.2218
▁testimony	-11.2218
▁healthcare	-11.2218
▁donald	-11.2219
▁insisted	-11.2219
▁florence	-11.222
▁timber	-11.222
▁loyalty	-11.222
▁sixteen	-11.222
▁maryland	-11.2223
▁pier	-11.2224
▁assess	-11.2224
arily	-11.2225
▁counties	-11.2226
▁pearl	-11.2226
▁ferry	-11.2226
▁tonnes	-11.2228
▁morality	-11.2233
▁dish	-11.2233
▁meters	-11.2234
▁abstraction	-11.2234
▁collectively	-11.2234
oxy	-11.2234
▁invest	-11.224
▁mask	-11.2246
rule	-11.2251
▁passion	-11.2251
▁observers	-11.2252
▁maps	-11.2255
▁jaw	-11.2258
hercule	-11.2261
▁button	-11.2265
▁romania	-11.2267
pit	-11.2268
▁clan	-11.2269
gm	-11.2273
▁explore	-11.2274
▁fluoride	-11.2276
lé	-11.2277
▁astronomer	-11.2281
▁sponsored	-11.2285
▁expect	-11.2287
wald	-11.2287
▁adaptations	-11.2289
▁milne	-11.2295
▁sharing	-11.2297
gio	-11.2299
▁numbered	-11.23
▁digit	-11.2302
-21	-11.2305
dio	-11.2307
ground	-11.2309
▁insight	-11.2311
▁relatives	-11.2312
▁croatia	-11.2312
▁tony	-11.2313
▁legends	-11.2314
cca	-11.2316
▁nat	-11.2319
▁resistant	-11.2322
▁criteria	-11.2326
▁encoding	-11.2326
▁karpov	-11.2326
▁vespucci	-11.2326
▁globe	-11.2326
▁immune	-11.2326
▁unstable	-11.2326
▁penalty	-11.2327
▁martial	-11.2327
▁blockade	-11.2329
▁clark	-11.2329
▁quran	-11.233
▁rebuilt	-11.2332
▁assyria	-11.2332
▁1863	-11.2332
▁physically	-11.2333
▁1878	-11.2334
▁isles	-11.2336
▁andaman	-11.2342
▁lynch	-11.2342
▁recommendation	-11.2342
▁objectives	-11.2342
▁successors	-11.2345
▁46	-11.2345
▁strictly	-11.2351
mmer	-11.2351
900	-11.2352
▁broadway	-11.2356
▁armor	-11.2357
wave	-11.2357
mun	-11.236
▁advocated	-11.2361
hem	-11.2365
▁width	-11.2366
▁170	-11.2366
▁afterlife	-11.2367
▁fees	-11.2367
▁tenth	-11.2373
▁regulated	-11.2374
▁switched	-11.2374
▁68	-11.2375
▁colleagues	-11.2376
▁bart	-11.2377
rc	-11.2379
▁derive	-11.2379
▁railways	-11.2379
2000	-11.2379
cott	-11.2382
opo	-11.2388
▁2015.	-11.239
▁ata	-11.2392
▁associates	-11.2393
▁outcome	-11.2395
burials	-11.2396
▁sor	-11.2396
▁hiv	-11.2397
▁springs	-11.2397
▁hum	-11.24
▁comet	-11.2415
▁approximate	-11.242
anna	-11.2421
▁upgrade	-11.2422
▁spare	-11.2424
▁traveling	-11.2425
▁meteor	-11.2426
▁commit	-11.2433
▁bletchley	-11.2435
▁subsidiary	-11.2435
▁dominance	-11.2435
▁salvation	-11.2435
▁strategies	-11.2435
▁ataxia	-11.2435
▁beverage	-11.2435
▁staple	-11.2435
▁shelter	-11.2435
▁mouthwash	-11.2435
▁absent	-11.2435
bridge	-11.2436
▁colorado	-11.2436
▁outbreak	-11.244
▁norway	-11.244
▁airbus	-11.2442
▁clash	-11.2443
▁merchants	-11.2444
▁acquire	-11.2445
britney	-11.2445
▁healing	-11.2445
symmetr	-11.2446
▁authorized	-11.245
▁reactive	-11.2451
▁phoneme	-11.2451
hit	-11.2452
▁guardian	-11.2453
▁cement	-11.2458
▁stain	-11.2459
hari	-11.2461
▁warned	-11.2463
▁expressions	-11.2464
▁20,000	-11.2464
▁emphasized	-11.2464
▁asserted	-11.2468
▁heroes	-11.2468
▁peru	-11.247
tories	-11.247
▁marketed	-11.247
▁esp	-11.2472
▁rus	-11.2473
▁mongol	-11.2475
▁sect	-11.2477
▁agar	-11.2477
▁focuses	-11.2479
bow	-11.2482
▁notice	-11.2483
unit	-11.2485
▁allah	-11.2488
▁zoo	-11.2488
▁lying	-11.249
▁rooms	-11.2491
▁protons	-11.2492
▁ames	-11.2505
▁combinations	-11.2505
▁baron	-11.2509
reaches	-11.2511
▁milli	-11.2519
▁marched	-11.2519
▁54	-11.2523
2.5	-11.2528
catholic	-11.2531
atlantic	-11.2532
claim	-11.2533
dorf	-11.2535
good	-11.254
▁afford	-11.2542
afroasiatic	-11.2545
▁amplitude	-11.2545
▁availability	-11.2545
▁boolean	-11.2545
▁dialogue	-11.2545
▁gaudí	-11.2545
▁habsburg	-11.2545
▁manhattan	-11.2545
▁triumph	-11.2545
▁circum	-11.2545
▁trinity	-11.2545
▁underwent	-11.2545
▁alboin	-11.2545
▁mobility	-11.2545
▁ecosystem	-11.2545
▁cultivated	-11.2545
▁mlb	-11.2545
▁rhode	-11.2545
▁pleasure	-11.2545
▁campbell	-11.2545
▁residential	-11.2545
▁screenplay	-11.2545
▁tendency	-11.2546
▁tariff	-11.2546
▁creator	-11.2546
▁vogt	-11.2546
▁aesthetics	-11.2546
▁cliff	-11.2547
direct	-11.2547
sight	-11.2547
▁pipeline	-11.2549
▁assistive	-11.2549
▁experts	-11.255
isfahani	-11.255
▁1902	-11.255
▁1906	-11.2551
▁resumed	-11.2552
▁birthday	-11.2554
▁1924	-11.2554
ifying	-11.2555
▁attributes	-11.2559
▁easter	-11.2559
▁30%	-11.2565
ceded	-11.2566
▁vii	-11.2567
▁800	-11.2567
▁taxation	-11.2569
bank	-11.2571
▁56	-11.258
▁instant	-11.2582
▁vs	-11.2582
▁facto	-11.2583
▁baden	-11.2585
▁dub	-11.2586
▁romance	-11.2589
▁carr	-11.259
▁spec	-11.2593
▁seriously	-11.26
▁incidents	-11.26
para	-11.2601
▁libya	-11.2606
▁returns	-11.2607
mia	-11.2608
▁licensed	-11.2616
▁descend	-11.2619
▁clu	-11.2622
apple	-11.2625
▁sees	-11.2629
-18	-11.263
▁zen	-11.2632
▁egg	-11.2633
▁5,000	-11.2634
clar	-11.264
zen	-11.2643
structure	-11.2644
living	-11.2644
aircraft	-11.2645
▁enzymes	-11.2647
tail	-11.2648
▁joan	-11.265
▁innovations	-11.2652
▁actively	-11.2652
▁favored	-11.2654
▁transmit	-11.2655
▁eddington	-11.2656
▁arthritis	-11.2656
▁claudius	-11.2656
▁compiled	-11.2656
▁fiorentina	-11.2656
▁mahmud	-11.2656
▁nineteenth	-11.2656
▁pregnancy	-11.2656
▁proximity	-11.2656
▁vegetation	-11.2656
▁widdecombe	-11.2656
▁marple	-11.2656
▁buffer	-11.2656
▁drove	-11.2656
▁vapor	-11.2656
▁apache	-11.2656
▁pursuit	-11.2656
▁fault	-11.2656
▁isolation	-11.2656
▁subordinate	-11.2657
▁turret	-11.2657
▁copyright	-11.2657
▁compositions	-11.2657
▁yemen	-11.2658
itch	-11.2658
▁antioch	-11.2659
▁hart	-11.2659
▁circulation	-11.2659
▁summit	-11.2661
–12	-11.2661
▁fighter	-11.2663
▁90%	-11.2664
▁lifestyle	-11.2665
▁70%	-11.2667
▁72	-11.2669
▁organisations	-11.2671
▁shoulder	-11.2676
realism	-11.268
▁sanskrit	-11.2683
▁accession	-11.2683
cost	-11.2683
▁congo	-11.2689
each	-11.2689
▁explorer	-11.269
▁exceed	-11.2693
▁ease	-11.2693
▁suffer	-11.2693
▁raids	-11.2694
▁purely	-11.2702
▁whereby	-11.2702
▁lig	-11.271
green	-11.2714
xx	-11.2714
break	-11.2717
atta	-11.2717
▁bolivian	-11.2727
▁confession	-11.2731
▁chips	-11.2732
▁provision	-11.2736
▁earn	-11.2748
:00	-11.2751
built	-11.2751
▁psycho	-11.2752
▁trio	-11.2754
▁induce	-11.276
chemical	-11.2763
look	-11.2767
▁pittsburgh	-11.2768
▁aikido	-11.2768
▁conspiracy	-11.2768
▁harvard	-11.2768
▁nobility	-11.2768
▁sanctuary	-11.2768
▁tobacco	-11.2768
▁istanbul	-11.2768
▁whig	-11.2768
▁ransom	-11.2768
▁crust	-11.2768
▁emancipation	-11.2769
▁versus	-11.2769
▁consciousness	-11.2769
▁profound	-11.2769
▁stolen	-11.2769
▁governance	-11.277
baby	-11.277
▁radioactive	-11.277
▁castile	-11.2771
▁sitting	-11.2771
▁cream	-11.2772
▁fastest	-11.2772
▁magazines	-11.2772
▁intervene	-11.2772
will	-11.2773
▁fringe	-11.2776
▁ancestors	-11.2781
▁coordinates	-11.2781
mund	-11.2783
▁leak	-11.2784
corp	-11.279
▁2,000	-11.2791
▁lang	-11.2796
▁reproduce	-11.28
▁loyalists	-11.2801
▁helen	-11.2801
▁invested	-11.2804
calvin	-11.2805
▁patriots	-11.2806
▁continuously	-11.2807
▁belongs	-11.2807
▁associative	-11.2809
▁assert	-11.2814
▁stag	-11.2815
▁avoided	-11.2821
ila	-11.2825
▁surrendered	-11.2827
▁charts	-11.283
▁rag	-11.2831
▁cloth	-11.2832
▁peri	-11.2832
▁idol	-11.2833
tier	-11.2835
▁differently	-11.2839
being	-11.2844
▁lens	-11.2846
nni	-11.2848
▁presents	-11.285
▁needles	-11.285
▁rig	-11.2852
▁moments	-11.2852
-10	-11.2857
▁withdraw	-11.2861
▁sham	-11.2861
▁foundations	-11.2871
powered	-11.2871
▁macedon	-11.2871
▁bot	-11.2872
covered	-11.2874
geography	-11.2876
▁believing	-11.2882
▁caucasus	-11.2882
▁confidence	-11.2882
▁flemish	-11.2882
▁herodotus	-11.2882
▁ludwig	-11.2882
▁purple	-11.2882
▁referendum	-11.2882
▁wilhelm	-11.2882
▁cultivation	-11.2882
▁socket	-11.2882
▁manuel	-11.2882
▁auction	-11.2882
▁announcement	-11.2882
▁discharge	-11.2883
ahimsa	-11.2883
▁prevalent	-11.2883
▁fortune	-11.2884
▁accordingly	-11.2884
▁drill	-11.2884
▁fitted	-11.2885
▁analogous	-11.2886
▁80%	-11.2888
▁wool	-11.2889
▁topology	-11.289
ía	-11.2892
▁offence	-11.2894
▁archery	-11.2897
grade	-11.2899
▁dj	-11.29
▁convicted	-11.2902
▁rebels	-11.2902
▁lab	-11.2904
aught	-11.2904
▁intelligent	-11.2904
▁conservatives	-11.2904
▁believes	-11.2906
corn	-11.2907
▁nero	-11.2911
▁cop	-11.2925
▁remembered	-11.2925
▁sporting	-11.2927
▁fm	-11.2932
▁contend	-11.2936
▁integers	-11.2937
▁monthly	-11.294
▁developers	-11.294
▁matt	-11.2943
▁stretch	-11.2946
▁poisoning	-11.2946
▁roy	-11.2955
▁tech	-11.2956
▁aims	-11.2959
▁eating	-11.2962
tial	-11.2962
electric	-11.2964
budd	-11.2964
▁reporting	-11.2969
▁painters	-11.2971
▁complexes	-11.2973
▁neuron	-11.2975
▁mud	-11.2975
▁translate	-11.2979
away	-11.298
course	-11.2986
islamic	-11.2989
azz	-11.2989
asia	-11.2989
fan	-11.2989
▁pupils	-11.299
▁beneficial	-11.2997
▁chancellor	-11.2997
▁conjunction	-11.2997
▁decreasing	-11.2997
▁dictionary	-11.2997
▁laboratories	-11.2997
▁maternal	-11.2997
▁obstacle	-11.2997
▁unveiled	-11.2997
▁uranium	-11.2997
▁derleth	-11.2997
▁revived	-11.2997
▁swimming	-11.2997
▁eldest	-11.2997
▁plasma	-11.2997
▁semiconductor	-11.2997
▁sparrow	-11.2997
▁assuming	-11.2997
▁admiralty	-11.2998
▁motivation	-11.2998
historia	-11.2998
▁acadia	-11.2999
▁naked	-11.2999
▁rivals	-11.3
▁blake	-11.3
▁1907	-11.3003
▁fred	-11.3003
ometer	-11.3003
▁migrated	-11.3006
▁determination	-11.3006
▁basal	-11.3007
▁rape	-11.3007
gum	-11.3009
▁passive	-11.3009
▁commemorate	-11.3012
wen	-11.3014
▁intrinsic	-11.3015
▁nouns	-11.3015
▁nl	-11.3016
▁isomer	-11.3016
▁bac	-11.3019
▁pashtun	-11.3019
▁departed	-11.3021
_8	-11.3022
gotten	-11.3023
generating	-11.3027
▁ingredients	-11.3031
aud	-11.3032
▁sufficiently	-11.3036
sided	-11.3036
▁128	-11.3037
▁broader	-11.304
▁permanently	-11.304
▁bengali	-11.304
▁extracted	-11.3041
▁hume	-11.3042
▁nur	-11.3042
▁boards	-11.3047
▁wished	-11.305
▁affiliated	-11.3051
▁amid	-11.3051
▁hispanic	-11.3051
seven	-11.3056
▁wait	-11.3056
case	-11.3057
mount	-11.3063
▁250	-11.3064
page	-11.3074
von	-11.3084
▁malt	-11.3088
▁philippine	-11.3088
▁sed	-11.309
▁stellar	-11.309
▁creatures	-11.309
▁villa	-11.3093
camp	-11.3093
▁(8	-11.3094
▁chest	-11.3096
▁rocky	-11.3098
▁(0	-11.3098
▁indonesia	-11.3098
▁farms	-11.3101
▁warming	-11.3103
▁lithuania	-11.3106
defined	-11.3107
biotic	-11.3107
major	-11.3107
season	-11.3107
▁slight	-11.3108
▁3,000	-11.3109
▁competitor	-11.3113
▁bosporus	-11.3113
▁liturgical	-11.3113
▁pharaoh	-11.3113
▁remarkable	-11.3113
▁thompson	-11.3113
▁vaccine	-11.3113
▁junior	-11.3113
▁ambush	-11.3113
▁quiet	-11.3113
▁athenians	-11.3114
▁devised	-11.3114
▁breast	-11.3115
▁barrel	-11.3115
▁appletalk	-11.3115
market	-11.3115
▁reflecting	-11.3116
▁optics	-11.3116
gold	-11.3116
▁assassinated	-11.3117
▁dye	-11.3118
▁88	-11.3118
▁font	-11.3119
▁1876	-11.312
acc	-11.3121
hell	-11.3121
▁kir	-11.3121
▁1895	-11.3123
pine	-11.3134
▁tiny	-11.3139
articles	-11.3141
▁affection	-11.3141
▁62	-11.3141
▁ged	-11.3143
▁specialist	-11.3143
▁planes	-11.3146
▁denoted	-11.3146
▁sailing	-11.3151
cephal	-11.3154
▁outcomes	-11.3159
▁reinforced	-11.316
rey	-11.3163
▁yugoslavia	-11.3169
▁rim	-11.3169
▁servants	-11.317
putting	-11.3175
▁associations	-11.3177
▁canonical	-11.3185
asi	-11.3185
|4	-11.3185
▁quo	-11.3191
▁memo	-11.3195
▁absorb	-11.3196
ttle	-11.3197
▁profession	-11.32
▁accus	-11.3205
▁medication	-11.3206
▁scales	-11.3207
num	-11.3208
then	-11.3209
▁calculate	-11.3211
enburg	-11.3222
iba	-11.3223
▁babylon	-11.3224
ago	-11.3225
system	-11.3225
effective	-11.3228
analysis	-11.3228
ovi	-11.3228
▁chu	-11.3229
week	-11.323
▁agesilaus	-11.3231
▁babbage	-11.3231
▁coffee	-11.3231
▁enabling	-11.3231
▁inferior	-11.3231
▁necessity	-11.3231
▁perpendicular	-11.3231
▁proponent	-11.3231
▁sakharov	-11.3231
▁tertiary	-11.3231
▁thackeray	-11.3231
▁unexpected	-11.3231
▁remarked	-11.3231
▁amazons	-11.3231
▁kansas	-11.3231
▁tolerance	-11.3231
▁miracle	-11.3231
▁offspring	-11.3231
▁murray	-11.3232
▁neural	-11.3232
▁globally	-11.3232
▁limitations	-11.3233
▁celtic	-11.3233
▁sensory	-11.3234
▁bloom	-11.3234
▁smart	-11.3235
▁minorities	-11.3236
▁chemicals	-11.3236
▁luke	-11.3239
▁privately	-11.3246
ching	-11.3247
▁ny	-11.3248
dependent	-11.3249
▁socio	-11.3249
▁emit	-11.3255
▁andromeda	-11.3255
▁accurately	-11.3258
▁25%	-11.3259
▁knights	-11.3264
nen	-11.3266
ality	-11.3269
▁proceeded	-11.327
lik	-11.3274
▁insufficient	-11.3275
▁alleg	-11.3275
▁lou	-11.3278
▁failing	-11.3279
▁blacks	-11.3286
▁lifeson	-11.3288
▁doctors	-11.329
chel	-11.329
▁harmonic	-11.3291
pack	-11.3293
▁piet	-11.3294
logic	-11.33
▁emphasize	-11.33
▁verses	-11.3302
▁tensions	-11.3303
▁mate	-11.3303
verb	-11.3308
▁beef	-11.3309
▁constantly	-11.3311
▁byte	-11.3316
▁premiered	-11.3317
▁interpreter	-11.3319
▁cooling	-11.3323
▁wins	-11.3324
meric	-11.3325
▁identifie	-11.333
osa	-11.333
opus	-11.3335
una	-11.3342
▁luther	-11.3342
ppa	-11.3345
lant	-11.3346
compatible	-11.3346
soviet	-11.3346
▁attacking	-11.3348
vertebra	-11.3349
▁adequate	-11.335
▁conservator	-11.335
▁aristophanes	-11.335
▁hamilton	-11.335
▁jefferson	-11.335
▁kandahar	-11.335
▁sarajevo	-11.335
▁speculation	-11.335
▁taylor	-11.335
▁trajectory	-11.335
▁knock	-11.335
▁alkyl	-11.335
▁jeffrey	-11.335
gau	-11.335
▁saving	-11.335
▁pedro	-11.335
▁taiwan	-11.335
▁anagram	-11.335
▁michel	-11.3351
▁transaction	-11.3351
▁cortex	-11.3351
▁discourse	-11.3351
▁sustainable	-11.3352
▁rigid	-11.3352
▁phonetic	-11.3356
▁mountainous	-11.3357
▁heated	-11.3357
▁favorable	-11.3359
▁1776	-11.3362
pter	-11.3363
formerly	-11.3365
▁machinery	-11.3367
▁equality	-11.337
earth	-11.3372
pet	-11.3376
very	-11.3381
▁rebel	-11.3383
▁crowned	-11.3387
▁ultimate	-11.3389
▁reserved	-11.3391
mil	-11.3392
atomic	-11.3393
▁crete	-11.3393
▁hole	-11.3395
▁formulation	-11.3397
▁leon	-11.3408
▁instances	-11.342
▁representations	-11.3427
▁57	-11.3428
they	-11.3439
▁kam	-11.3442
▁frogs	-11.3443
▁peaked	-11.3447
▁bah	-11.3449
▁dominate	-11.3451
▁gradual	-11.3456
▁malaysia	-11.3456
ily	-11.3458
alan	-11.3459
▁gifts	-11.3459
▁pas	-11.346
▁sequences	-11.3462
6)	-11.3462
▁plantation	-11.3465
controlled	-11.3468
▁slam	-11.3469
▁160	-11.3469
▁brooklyn	-11.347
▁combustion	-11.347
▁compensate	-11.347
▁corridor	-11.347
▁equilibrium	-11.347
▁folklore	-11.347
▁headquartered	-11.347
▁populous	-11.347
▁pregnant	-11.347
▁theodosius	-11.347
▁watterson	-11.347
▁alameda	-11.347
▁wedding	-11.347
▁hormone	-11.347
▁aromatic	-11.347
▁uefa	-11.347
▁paved	-11.347
▁fiscal	-11.3471
▁petersburg	-11.3471
▁negro	-11.3472
beneath	-11.3472
▁awk	-11.3473
▁adaptive	-11.3473
▁tsar	-11.3474
▁legendary	-11.3474
▁generic	-11.3474
▁hull	-11.3475
▁factories	-11.3477
▁1882	-11.3477
▁cutting	-11.3478
▁61	-11.3481
▁carefully	-11.3481
rose	-11.3481
▁runway	-11.3482
▁touring	-11.3482
▁lydian	-11.3482
▁norse	-11.3483
helix	-11.3483
▁proposition	-11.3484
▁thrown	-11.3484
▁eaten	-11.3485
▁deposition	-11.3486
float	-11.3486
▁static	-11.3487
▁contracts	-11.3488
▁kick	-11.3489
battle	-11.349
tele	-11.349
▁advise	-11.349
▁viii	-11.3492
▁singh	-11.3495
▁dock	-11.3496
▁rendered	-11.3497
▁thebes	-11.35
▁faithful	-11.3503
▁collapsed	-11.351
itter	-11.3511
▁mall	-11.3514
hyp	-11.3515
▁contraction	-11.3515
aunt	-11.3517
▁cruisers	-11.3524
arra	-11.3533
▁switching	-11.3534
▁dances	-11.3535
▁tear	-11.3538
keeper	-11.3538
▁focusing	-11.3539
▁thor	-11.3545
▁dying	-11.3549
▁shop	-11.3549
▁drivers	-11.3551
uta	-11.3553
witch	-11.3557
▁attribute	-11.3557
▁indirect	-11.3559
loch	-11.356
kill	-11.3564
▁noun	-11.3566
▁tubes	-11.3567
abh	-11.3568
mill	-11.3571
▁pace	-11.3571
aging	-11.3575
▁asking	-11.3576
▁battalion	-11.3576
▁anton	-11.3576
▁warrior	-11.3577
▁dozen	-11.3581
▁barn	-11.3583
▁arrows	-11.3584
▁cheap	-11.3585
▁deter	-11.3585
▁contexts	-11.3587
wheel	-11.3589
▁morris	-11.359
▁mach	-11.3591
rising	-11.3591
economic	-11.3591
▁node	-11.3592
▁ceramic	-11.3592
▁fountain	-11.3592
▁griffith	-11.3592
▁implication	-11.3592
▁kosovo	-11.3592
▁kournikova	-11.3592
▁sequel	-11.3592
▁westminster	-11.3592
▁denounc	-11.3592
▁dopamine	-11.3592
▁grammatical	-11.3592
▁vibration	-11.3592
▁confined	-11.3592
▁heracles	-11.3592
▁amalric	-11.3592
▁partition	-11.3592
▁ascetic	-11.3592
▁fertile	-11.3592
▁guidelines	-11.3593
▁offshore	-11.3593
▁prosperity	-11.3593
▁patrick	-11.3594
▁basil	-11.3594
▁mortar	-11.3594
▁steep	-11.3595
▁hostile	-11.3595
▁lag	-11.3596
▁silent	-11.3597
▁missionaries	-11.3597
▁null	-11.3597
▁catalyst	-11.3597
▁tutor	-11.3597
ova	-11.3597
▁shallow	-11.3598
▁lauren	-11.3598
▁foul	-11.3598
▁1874	-11.36
indian	-11.3602
▁packet	-11.3602
▁feared	-11.3605
▁constantine	-11.3605
developed	-11.3606
value	-11.3606
▁updated	-11.3607
▁papal	-11.361
▁dc	-11.361
▁hera	-11.361
zone	-11.3612
▁feelings	-11.3613
▁missionary	-11.3615
▁1.5	-11.3616
▁parade	-11.362
▁clade	-11.3621
ische	-11.3622
oka	-11.3623
▁planetar	-11.3628
irish	-11.3632
▁levi	-11.3633
▁acetylene	-11.3635
▁addresses	-11.3635
▁amir	-11.3636
▁contracted	-11.3636
▁recreational	-11.3643
▁backed	-11.3645
quality	-11.3648
pose	-11.3654
▁sisters	-11.3655
▁subjected	-11.3661
▁aggr	-11.3663
assi	-11.3664
▁debuted	-11.3666
▁departments	-11.3668
▁crosses	-11.3669
hall	-11.3675
▁seasonal	-11.3675
▁shortage	-11.3676
▁scar	-11.3676
▁devil	-11.3678
▁sail	-11.3683
▁depicting	-11.3684
▁baku	-11.3685
▁strikes	-11.3687
rch	-11.3689
▁moor	-11.3691
kk	-11.3694
▁affiliate	-11.3696
▁bytes	-11.3704
▁descriptions	-11.371
flat	-11.3711
▁confront	-11.3712
science	-11.3714
▁automatic	-11.3715
▁pm	-11.3715
▁aardvark	-11.3715
▁alabaster	-11.3715
▁ambiguous	-11.3715
▁anemometer	-11.3715
▁archaeology	-11.3715
▁cretaceous	-11.3715
▁desktop	-11.3715
▁hijacking	-11.3715
▁immense	-11.3715
▁morocco	-11.3715
▁nomenclature	-11.3715
▁respiratory	-11.3715
▁singapore	-11.3715
▁therapeutic	-11.3715
▁bornholm	-11.3715
▁chassis	-11.3716
▁innocent	-11.3716
▁theropod	-11.3716
▁stabilize	-11.3716
▁raf	-11.3716
▁beacon	-11.3716
columbia	-11.3717
▁stoker	-11.3717
▁compression	-11.3718
▁wireless	-11.3718
altaic	-11.3719
▁earthsea	-11.3719
▁brightness	-11.372
▁batteries	-11.372
▁alchemical	-11.3721
▁1864	-11.3723
▁marcus	-11.3726
▁1899	-11.3726
▁1885	-11.3727
▁pest	-11.3727
▁acceptable	-11.3728
▁howard	-11.3731
▁substitute	-11.3732
▁bike	-11.3733
▁dom	-11.3734
▁investigated	-11.3734
▁corporations	-11.3736
▁travels	-11.3739
▁dose	-11.3739
ility	-11.3743
train	-11.3743
bill	-11.3744
▁gravity	-11.3747
3,000	-11.3749
▁xi	-11.3753
▁suppressed	-11.3757
thirds	-11.3758
▁oxides	-11.3758
▁democrat	-11.3759
▁predators	-11.3763
df	-11.3763
▁slav	-11.3767
▁hound	-11.3771
▁runners	-11.3782
▁melt	-11.3785
▁relie	-11.379
▁civilians	-11.379
▁advocates	-11.3793
▁witness	-11.3797
asian	-11.38
capital	-11.3805
▁hom	-11.3806
titude	-11.3806
▁dismiss	-11.3808
▁inhibitor	-11.3809
batt	-11.3812
▁guided	-11.3813
acci	-11.382
▁emerge	-11.3821
itu	-11.3822
▁squ	-11.3828
tag	-11.3828
▁musician	-11.3831
▁demographic	-11.3831
▁feather	-11.3832
▁resident	-11.3833
phys	-11.3836
▁130	-11.3837
▁acm	-11.3837
-12	-11.3837
▁altruism	-11.384
▁ambitious	-11.384
▁certified	-11.384
▁contemporaries	-11.384
▁imagine	-11.384
▁thracian	-11.384
▁chicken	-11.384
▁feminist	-11.384
▁flavor	-11.384
▁abundance	-11.384
▁autocad	-11.384
▁agrarian	-11.384
▁vassal	-11.384
▁fierce	-11.384
▁congressional	-11.3841
▁dostum	-11.3841
▁perseus	-11.3841
▁cancelled	-11.3841
▁thrace	-11.3841
▁intercourse	-11.3842
▁ivory	-11.3842
▁mortal	-11.3842
▁eugene	-11.3842
school	-11.3843
▁levant	-11.3843
▁aorta	-11.3843
▁sermon	-11.3844
▁choir	-11.3844
animal	-11.3844
▁bust	-11.3844
▁frankish	-11.3845
▁borland	-11.3846
▁1879	-11.3849
▁atheist	-11.385
▁slavic	-11.385
▁specify	-11.385
▁besieged	-11.3853
▁advertisements	-11.3858
▁differentiate	-11.3858
spor	-11.3861
▁countryside	-11.3862
▁everyday	-11.3863
▁mutation	-11.3864
▁enacted	-11.3864
little	-11.3864
▁solved	-11.3874
▁77	-11.3875
▁(12	-11.3875
▁evaluat	-11.3876
▁segments	-11.3882
▁giants	-11.3888
▁cue	-11.3893
▁handed	-11.3909
mini	-11.3913
enter	-11.392
▁tru	-11.3921
▁ib	-11.3928
mour	-11.393
▁stops	-11.393
▁educat	-11.393
pole	-11.3936
month	-11.3939
▁loc	-11.394
▁tries	-11.3943
yu	-11.395
▁pray	-11.395
▁treaties	-11.3951
▁routine	-11.3953
▁gua	-11.3953
▁hetero	-11.3953
▁nominal	-11.3954
▁aga	-11.3958
wall	-11.3959
▁expert	-11.396
▁authentic	-11.3964
syllab	-11.3965
▁affiliation	-11.3967
▁ayckbourn	-11.3967
▁connecticut	-11.3967
▁default	-11.3967
▁difranco	-11.3967
▁economies	-11.3967
▁extraordinary	-11.3967
▁imprisonment	-11.3967
karabakh	-11.3967
▁liberties	-11.3967
▁militant	-11.3967
▁infrared	-11.3967
▁arnold	-11.3967
▁shuttlecock	-11.3967
▁ideology	-11.3967
▁farther	-11.3967
▁wesley	-11.3968
▁investors	-11.3968
▁chorus	-11.3968
▁plaque	-11.3969
▁wildlife	-11.3969
▁sikh	-11.3969
▁exposition	-11.397
▁overcome	-11.3973
screen	-11.3973
dig	-11.3974
▁1909	-11.3975
▁temp	-11.3976
tron	-11.3977
▁exert	-11.3978
▁fee	-11.3978
blade	-11.3979
mouth	-11.398
true	-11.3982
▁insect	-11.3984
▁disappeared	-11.3984
▁reasonable	-11.3987
chin	-11.3991
▁30,000	-11.3999
standing	-11.3999
▁(11	-11.4001
languages	-11.4005
▁pose	-11.4006
▁doubled	-11.4006
▁voter	-11.4008
▁placebo	-11.4015
▁journals	-11.4016
▁handled	-11.4017
▁pilots	-11.4029
ovich	-11.4029
▁hector	-11.403
▁chant	-11.4032
▁inverse	-11.4033
imo	-11.4033
▁theologians	-11.4036
▁71	-11.4037
3.5	-11.4038
▁coin	-11.4044
▁hymns	-11.4046
iva	-11.405
▁receptors	-11.4052
▁artifacts	-11.4054
▁launching	-11.406
▁drinks	-11.4063
▁argo	-11.4064
▁clair	-11.4065
▁heights	-11.4069
▁recipient	-11.4072
▁investigate	-11.4076
▁jon	-11.4076
quant	-11.4078
▁enhance	-11.4081
zed	-11.4081
gol	-11.4083
drop	-11.4088
mā	-11.409
eight	-11.4095
▁approximation	-11.4095
▁embedded	-11.4095
▁genocide	-11.4095
▁herbicide	-11.4095
▁kidnapping	-11.4095
▁synagogue	-11.4095
▁displaced	-11.4095
▁vitamin	-11.4095
▁laureate	-11.4095
▁innovative	-11.4095
▁righteous	-11.4095
▁aldrin	-11.4095
▁dancing	-11.4095
▁bohemia	-11.4095
▁therapies	-11.4095
▁imaging	-11.4096
▁torture	-11.4096
▁genome	-11.4096
▁gemini	-11.4097
▁drainage	-11.4097
▁iowa	-11.4097
▁deployment	-11.4097
lion	-11.4099
▁dominion	-11.4099
tak	-11.4099
hare	-11.41
▁textbook	-11.41
▁prescribed	-11.4101
african	-11.4101
containing	-11.4101
standard	-11.4102
▁anywhere	-11.4104
▁organism	-11.4106
▁1836	-11.4106
▁duration	-11.4107
▁kong	-11.4109
▁pride	-11.4109
én	-11.4112
▁ride	-11.4116
bay	-11.4117
▁spartan	-11.4123
▁controlling	-11.4124
▁eb	-11.4125
▁dollar	-11.4126
▁lat	-11.4126
▁opinions	-11.414
▁platforms	-11.414
▁venues	-11.4141
▁computational	-11.415
▁generalized	-11.4151
optic	-11.4151
cio	-11.4154
▁relieve	-11.4155
▁onset	-11.4155
six	-11.4156
▁homeland	-11.4157
▁rahman	-11.4162
="13	-11.4167
▁magnet	-11.4172
="12	-11.4174
▁achiev	-11.4177
▁mills	-11.4179
▁prohibit	-11.4184
▁hide	-11.4184
▁possessed	-11.4185
▁kle	-11.4187
▁originat	-11.4187
▁successes	-11.4198
▁anabaptists	-11.42
▁crystals	-11.4201
cock	-11.4208
–14	-11.4209
▁sometime	-11.4216
▁consumers	-11.4218
▁sulfur	-11.422
cross	-11.422
▁hasan	-11.4225
▁ajaccio	-11.4225
▁anointing	-11.4225
▁baldwin	-11.4225
▁bundestag	-11.4225
▁explosion	-11.4225
▁hockey	-11.4225
▁ibrahim	-11.4225
▁judiciary	-11.4225
▁prominence	-11.4225
▁spherical	-11.4225
▁talmud	-11.4225
▁alkenes	-11.4225
▁scotia	-11.4225
▁symmetry	-11.4225
▁client	-11.4226
▁delphi	-11.4226
▁ratified	-11.4226
▁refraction	-11.4227
▁cheese	-11.4227
▁complementary	-11.4227
▁blackjack	-11.4228
▁whale	-11.4228
▁ky	-11.4228
▁ruins	-11.4228
▁shipped	-11.4228
▁evans	-11.4229
writing	-11.4231
▁diego	-11.4231
hara	-11.4231
▁weakness	-11.4231
▁darkness	-11.4232
▁larvae	-11.4232
▁evaluation	-11.4232
foreign	-11.4233
religious	-11.4233
family	-11.4233
▁azad	-11.4233
▁maj	-11.4233
▁whatever	-11.4234
▁deliberately	-11.4234
▁hitting	-11.4236
▁sarah	-11.4236
▁1783	-11.4239
▁marker	-11.4239
▁ecclesiastical	-11.4239
▁truly	-11.424
▁octa	-11.4246
▁adiabatic	-11.4247
▁contributor	-11.4248
▁productive	-11.4249
▁examined	-11.425
▁highways	-11.425
▁releas	-11.4251
▁enterprises	-11.4254
▁victorian	-11.4261
▁graz	-11.4265
▁circles	-11.4267
▁novelists	-11.4268
▁compare	-11.4269
fix	-11.4271
▁weaker	-11.4271
▁patrol	-11.4273
▁bonding	-11.4277
▁vent	-11.4279
cp	-11.4281
▁harmon	-11.4286
▁firms	-11.4287
▁ballistic	-11.4287
▁deeper	-11.4287
▁practitioners	-11.4301
vil	-11.4308
700	-11.4309
cities	-11.4313
axis	-11.4316
location	-11.4318
▁debated	-11.4319
▁restrict	-11.432
▁schemes	-11.4322
▁almonds	-11.4322
stand	-11.4327
▁differs	-11.4329
▁commemorat	-11.4331
▁telling	-11.4333
▁glands	-11.4335
▁regulate	-11.4337
▁fed	-11.4347
▁chrom	-11.4347
vita	-11.4349
-120	-11.435
uci	-11.4351
falcon	-11.4356
▁dvd	-11.4356
princip	-11.4357
▁abbreviated	-11.4357
▁antwerp	-11.4357
▁definitive	-11.4357
▁edmonton	-11.4357
▁luxury	-11.4357
▁myanmar	-11.4357
▁obscure	-11.4357
▁overwhelming	-11.4357
▁palestine	-11.4357
▁propaganda	-11.4357
▁wizard	-11.4357
▁activation	-11.4357
▁puerto	-11.4357
▁baghdad	-11.4357
▁orleans	-11.4357
▁disabled	-11.4357
▁robust	-11.4357
▁injured	-11.4357
▁melbourne	-11.4357
▁thomson	-11.4357
▁morphology	-11.4357
▁excret	-11.4358
▁trapped	-11.4358
▁occasional	-11.4359
▁manchester	-11.4359
▁assignment	-11.4359
▁costume	-11.436
▁chord	-11.436
ometry	-11.4361
▁workshop	-11.4361
▁conrad	-11.4362
▁emirate	-11.4363
▁symmetric	-11.4364
▁descendant	-11.4364
philosoph	-11.4364
▁1871	-11.4364
▁aragon	-11.4364
operation	-11.4364
▁profitable	-11.4364
resistant	-11.4365
▁rejection	-11.4365
▁terminate	-11.4368
carbon	-11.4368
▁voiced	-11.4368
▁southwestern	-11.4369
▁parker	-11.4372
▁onward	-11.4373
▁peaks	-11.4374
▁modify	-11.4378
▁asexual	-11.4379
▁precisely	-11.4382
assa	-11.4382
▁bail	-11.4382
soft	-11.4385
▁captur	-11.4386
toxic	-11.4387
▁zf	-11.4389
▁honored	-11.439
▁pigment	-11.4393
▁sailed	-11.4394
▁vein	-11.4395
▁1%	-11.4396
pent	-11.4401
▁abm	-11.4403
▁jane	-11.4407
▁morph	-11.4409
▁coral	-11.441
jar	-11.4411
▁skilled	-11.4418
▁horns	-11.4424
▁methyl	-11.4427
rix	-11.443
▁anode	-11.4437
▁knowing	-11.4442
▁acknowledge	-11.4444
▁shoe	-11.4444
▁ost	-11.4447
▁bayer	-11.4447
▁assign	-11.4447
coa	-11.445
▁announc	-11.4456
▁defending	-11.4457
ammon	-11.4459
▁vow	-11.4461
▁chase	-11.4462
▁proposals	-11.4465
▁lap	-11.4465
▁publishers	-11.4465
▁dim	-11.4467
▁persuade	-11.447
ober	-11.4479
▁analytic	-11.4485
▁entertain	-11.4487
mile	-11.4488
▁processed	-11.4489
dreadnought	-11.449
▁geoffrey	-11.449
▁maximilian	-11.449
▁ayahuasca	-11.449
▁berkeley	-11.449
▁coordination	-11.449
▁eclipse	-11.449
▁matthew	-11.449
▁messenger	-11.449
▁reluctant	-11.449
▁rothbard	-11.449
▁scenario	-11.449
▁dwarf	-11.449
▁iodine	-11.449
▁semantic	-11.449
▁alcuin	-11.449
▁shepard	-11.449
▁closing	-11.449
▁silicon	-11.449
▁alemanni	-11.449
▁regent	-11.449
▁premise	-11.449
▁trauma	-11.4491
▁titan	-11.4491
▁spaceflight	-11.4492
albertosaurus	-11.4493
nf	-11.4493
▁aimery	-11.4493
▁theorists	-11.4494
▁graham	-11.4494
▁banner	-11.4496
▁sauce	-11.4496
▁bloc	-11.4496
▁aids	-11.4498
▁pupil	-11.4498
▁1889	-11.4499
▁mold	-11.4499
▁disability	-11.4499
▁ballot	-11.4501
partisan	-11.4503
dragon	-11.4503
▁negotiated	-11.4503
▁tempe	-11.4505
▁battalions	-11.4507
▁appealed	-11.4508
▁saxony	-11.4508
university	-11.4509
▁bursa	-11.4513
▁performers	-11.4514
▁explored	-11.4515
▁cassi	-11.4515
▁pyramid	-11.4516
gui	-11.4517
▁sustained	-11.4521
▁kol	-11.4522
_10	-11.4525
elected	-11.4526
tten	-11.4527
▁motifs	-11.453
▁excluded	-11.4531
▁110	-11.4534
▁safely	-11.4534
▁exit	-11.4538
▁conscious	-11.454
albert	-11.4543
_11	-11.4545
vig	-11.4545
metal	-11.4546
pad	-11.4548
found	-11.4553
▁broadly	-11.4554
ridge	-11.4556
▁marginal	-11.4563
▁medi	-11.4564
▁limbs	-11.4564
loom	-11.4567
▁plead	-11.4567
fre	-11.4568
▁recreation	-11.4569
▁iconic	-11.4569
▁dinosaurs	-11.457
▁dimension	-11.4571
finitely	-11.4574
beavis	-11.4576
dog	-11.4581
▁till	-11.4589
▁ionic	-11.4595
▁fungi	-11.4597
aux	-11.4599
▁arb	-11.4601
▁cartoon	-11.4604
hind	-11.4605
▁arg	-11.4606
▁ashur	-11.4607
sexual	-11.4614
▁delegates	-11.4615
▁confess	-11.4619
▁4,000	-11.4622
▁brom	-11.4624
apocrypha	-11.4625
▁abergavenny	-11.4625
▁ammunition	-11.4625
▁antimatter	-11.4625
▁ceremonies	-11.4625
▁descartes	-11.4625
▁diagnosis	-11.4625
▁disabilities	-11.4625
▁productivity	-11.4625
▁propagation	-11.4625
▁rudolf	-11.4625
▁discrete	-11.4625
▁lobby	-11.4625
▁ambition	-11.4625
▁undertaken	-11.4625
▁theatrical	-11.4625
▁deposed	-11.4625
▁ajanta	-11.4625
▁utility	-11.4625
▁copied	-11.4625
▁kidney	-11.4626
▁raymond	-11.4626
articulat	-11.4626
▁wrestling	-11.4626
▁engrav	-11.4626
▁resignation	-11.463
▁toxicity	-11.4631
▁lucius	-11.4631
tracted	-11.4631
▁1877	-11.4633
▁1875	-11.4634
▁1893	-11.4634
▁1866	-11.4635
▁volunteer	-11.4637
▁adhesive	-11.4637
▁tap	-11.4637
▁politician	-11.4637
alexander	-11.4638
weight	-11.4639
▁bark	-11.4641
▁cp	-11.4651
▁suite	-11.4654
▁alice	-11.4659
▁sunni	-11.4662
▁lind	-11.4663
▁collector	-11.4665
mart	-11.4665
▁exiled	-11.4675
▁homo	-11.4675
▁thy	-11.4678
often	-11.4684
▁holes	-11.4685
▁protecting	-11.4687
▁comprised	-11.4689
▁shan	-11.4694
▁kid	-11.4697
stock	-11.4699
▁oppose	-11.4699
chain	-11.4701
▁atlas	-11.4703
▁unrest	-11.4705
abad	-11.4705
▁wartime	-11.4707
tree	-11.4709
▁yearly	-11.4709
▁monitoring	-11.4714
face	-11.472
▁neighbor	-11.4721
▁projection	-11.4726
▁suspect	-11.4728
pac	-11.4729
▁afc	-11.4731
▁helicopters	-11.4732
stead	-11.4733
italian	-11.4734
building	-11.4737
▁fibers	-11.4738
chester	-11.4739
▁housed	-11.4748
▁container	-11.4749
dian	-11.4751
▁explaining	-11.4751
▁marshal	-11.4754
▁wag	-11.4761
▁shakespeare	-11.4762
▁derivation	-11.4762
▁ferdinand	-11.4762
▁hijacker	-11.4762
▁masculine	-11.4762
▁paternal	-11.4762
▁propulsion	-11.4762
▁recession	-11.4762
▁lattice	-11.4762
▁ronald	-11.4762
▁eucharist	-11.4762
▁relax	-11.4762
▁pirates	-11.4762
▁scoring	-11.4762
▁allophone	-11.4762
▁freight	-11.4763
▁oracle	-11.4763
▁drunk	-11.4763
▁tokyo	-11.4763
▁plunder	-11.4763
▁metabolism	-11.4763
▁halogen	-11.4763
▁graphic	-11.4763
center	-11.4763
▁proceedings	-11.4764
▁jimmy	-11.4764
▁beastie	-11.4764
▁solomon	-11.4764
▁morgan	-11.4765
▁monster	-11.4767
▁interesting	-11.4773
▁agnostic	-11.4774
▁clothes	-11.4775
▁churchill	-11.4775
▁exceptional	-11.4775
▁summ	-11.4776
algebra	-11.4777
capacity	-11.4777
afghan	-11.4777
determin	-11.4778
evich	-11.478
▁ethnicity	-11.478
▁indefinite	-11.4781
▁guin	-11.4786
▁guinea	-11.4786
letter	-11.479
lick	-11.4791
▁supporter	-11.4792
▁bodhisattvas	-11.4794
▁stance	-11.4797
around	-11.4804
zan	-11.4804
▁harp	-11.4806
▁overlap	-11.4807
▁preparations	-11.481
due	-11.481
▁syrian	-11.4814
▁pale	-11.4815
▁correctly	-11.4817
winning	-11.4819
▁reactor	-11.4827
▁penn	-11.4829
▁prophets	-11.4833
poly	-11.4833
née	-11.4839
turing	-11.4845
▁scriptures	-11.485
▁(7	-11.4855
▁flowing	-11.4859
▁0.5	-11.4862
izz	-11.4867
▁modifications	-11.487
▁remnants	-11.4872
▁kur	-11.488
▁valued	-11.4881
verse	-11.4882
▁optional	-11.4885
▁adhesives	-11.4889
▁mistake	-11.4892
communica	-11.4899
▁inventions	-11.49
disambiguation	-11.4901
▁arcturus	-11.4901
▁badminton	-11.4901
▁ceremonial	-11.4901
▁communism	-11.4901
▁compensation	-11.4901
▁electrophoresis	-11.4901
▁lebanon	-11.4901
▁literacy	-11.4901
▁missouri	-11.4901
▁participating	-11.4901
▁preliminary	-11.4901
▁schmitt	-11.4901
▁steadily	-11.4901
▁calgary	-11.4901
▁pocket	-11.4901
▁revenge	-11.4901
▁glacier	-11.4901
▁assimilat	-11.4901
▁caution	-11.4901
▁leather	-11.4901
▁mhz	-11.4901
▁vizier	-11.4901
▁burgess	-11.4901
▁hittite	-11.4901
▁declining	-11.4901
▁carving	-11.4901
▁blank	-11.4902
▁naples	-11.4902
▁automatically	-11.4903
▁launcher	-11.4903
▁rode	-11.4905
▁qualified	-11.4905
▁mtv	-11.4908
▁ss	-11.4908
▁60%	-11.491
▁ut	-11.4916
▁allele	-11.4916
▁tuberculosis	-11.4918
while	-11.4918
▁portrayal	-11.4918
sometimes	-11.4918
social	-11.4918
launch	-11.4919
synthesis	-11.4919
▁dozens	-11.4919
prince	-11.4919
hydrogen	-11.4919
▁inmates	-11.4921
▁economically	-11.4927
▁instituted	-11.4936
4,000	-11.4938
version	-11.494
▁nose	-11.4941
▁klan	-11.4942
limit	-11.4943
data	-11.4946
▁exceeding	-11.4952
cam	-11.4957
▁tie	-11.4967
▁panic	-11.4968
▁penta	-11.4969
▁proceeds	-11.4973
▁quad	-11.4974
_12	-11.4985
▁dealt	-11.4987
▁unite	-11.4988
▁lili	-11.4988
▁burma	-11.4988
▁ethno	-11.4993
▁conductor	-11.5002
lang	-11.5008
▁cite	-11.5009
▁feud	-11.5013
–5	-11.5026
▁predominant	-11.5027
▁defender	-11.5028
▁famously	-11.503
cup	-11.5037
cine	-11.504
▁comfort	-11.504
iron	-11.5042
▁amethyst	-11.5042
▁contingent	-11.5042
▁covenant	-11.5042
▁khorasan	-11.5042
▁mackenzie	-11.5042
▁quantitative	-11.5042
▁bagpipe	-11.5042
▁paradox	-11.5042
▁lawrence	-11.5042
▁mound	-11.5042
▁penetrate	-11.5042
▁drift	-11.5042
▁electromagnetic	-11.5042
▁heinrich	-11.5042
▁josé	-11.5042
▁aspiration	-11.5042
▁scots	-11.5042
▁presumably	-11.5042
▁pentagon	-11.5042
▁diagram	-11.5043
▁civic	-11.5043
▁boast	-11.5043
▁continuity	-11.5043
▁synod	-11.5044
▁knee	-11.5044
▁fortified	-11.5045
▁doors	-11.5046
▁speculated	-11.5048
▁submit	-11.5049
hole	-11.5049
▁famine	-11.505
▁conversely	-11.505
▁validity	-11.5051
▁stiff	-11.5051
▁hong	-11.5053
▁mature	-11.5054
length	-11.506
sphere	-11.5061
▁baby	-11.5064
▁celebrations	-11.5066
▁cooper	-11.5066
▁anglicanism	-11.5068
▁chris	-11.507
▁medications	-11.5071
▁wei	-11.5073
▁austroasiatic	-11.5073
▁prussian	-11.5074
▁depiction	-11.5074
▁adjective	-11.5075
watt	-11.5077
▁herat	-11.5079
▁witnessed	-11.5081
songwriter	-11.5085
▁addressing	-11.5094
abd	-11.5101
▁nurse	-11.5108
lich	-11.5111
▁resembles	-11.5117
▁constituted	-11.5121
▁adt	-11.5121
wei	-11.5123
saur	-11.5129
▁textiles	-11.513
aster	-11.5138
ensis	-11.5142
▁agm	-11.5144
▁lone	-11.5147
▁objection	-11.5153
tax	-11.5156
lop	-11.5162
structed	-11.5163
▁synthesize	-11.5165
▁pac	-11.5166
▁priv	-11.5168
▁worker	-11.5168
pair	-11.5169
▁bryozoans	-11.517
▁kirk	-11.5173
▁cone	-11.5175
-47	-11.5181
stol	-11.5183
▁affinity	-11.5185
▁certificate	-11.5185
▁detroit	-11.5185
▁palestinian	-11.5185
▁plutarch	-11.5185
▁reconnaissance	-11.5185
▁rubidium	-11.5185
▁stomach	-11.5185
▁tributaries	-11.5185
▁enrolled	-11.5185
▁velvet	-11.5185
▁gabriel	-11.5185
▁ernst	-11.5185
▁ontario	-11.5185
▁abilities	-11.5185
▁clips	-11.5185
▁thunder	-11.5185
▁oregon	-11.5185
▁flesh	-11.5185
▁instability	-11.5185
▁cycling	-11.5186
▁worm	-11.5186
▁hollow	-11.5186
▁robinson	-11.5186
▁leonard	-11.5186
▁regulatory	-11.5188
▁offense	-11.5189
▁pardon	-11.5189
▁sunlight	-11.5189
▁stationed	-11.5189
▁interactive	-11.5191
▁yards	-11.5192
▁1881	-11.5192
▁metres	-11.5193
▁helmet	-11.5193
opa	-11.5193
▁iceland	-11.5194
▁backward	-11.5194
▁oval	-11.5195
dharma	-11.5196
▁principality	-11.5199
held	-11.5199
▁erect	-11.5204
buffalo	-11.5205
trust	-11.5207
▁remind	-11.5208
▁bang	-11.521
mamma	-11.5211
▁anabaptist	-11.5213
▁creature	-11.5213
got	-11.5213
▁antidepressant	-11.5213
▁carboxyl	-11.5215
▁standardized	-11.5215
▁pour	-11.5218
▁rover	-11.522
▁innings	-11.5222
▁differential	-11.5222
▁gide	-11.5224
▁beard	-11.5224
▁amos	-11.5226
eman	-11.5227
▁asserts	-11.5228
pf	-11.5232
benz	-11.5232
acts	-11.5233
▁sang	-11.5242
..."	-11.5244
▁finishing	-11.5249
▁squadrons	-11.5259
sburg	-11.5259
▁cake	-11.526
▁collecting	-11.5268
▁concludes	-11.5279
tun	-11.5292
▁scrap	-11.5298
▁sink	-11.5299
▁cry	-11.5301
union	-11.5304
brook	-11.5306
▁relates	-11.5307
▁enforce	-11.5308
▁cease	-11.5314
▁volunteers	-11.5317
▁versa	-11.5318
▁cruise	-11.5321
▁expectations	-11.5323
chlor	-11.5326
▁modulat	-11.5327
neurotransmitter	-11.533
▁alignment	-11.533
▁bachelor	-11.533
▁cologne	-11.533
▁fracture	-11.533
▁hierarchy	-11.533
▁qualification	-11.533
▁reservoir	-11.533
▁ukrainian	-11.533
▁unanimous	-11.533
▁expenditure	-11.533
▁renewable	-11.533
▁devotion	-11.533
▁pixel	-11.533
▁aspirated	-11.533
▁refined	-11.533
▁dallas	-11.533
▁corpus	-11.533
▁infinity	-11.533
▁recipe	-11.533
▁sensation	-11.533
▁incarnation	-11.5331
▁samoa	-11.5331
▁problematic	-11.5332
▁mourn	-11.5332
▁harmful	-11.5332
▁uncertainty	-11.5333
iq	-11.5333
▁greenhouse	-11.5333
▁motherboard	-11.5335
▁arianism	-11.5336
▁iberian	-11.5337
▁travelling	-11.5339
▁attractive	-11.534
▁tablets	-11.5342
▁endangered	-11.5342
▁lend	-11.5343
▁cheaper	-11.5343
▁1775	-11.5345
▁analyzed	-11.5345
fon	-11.5347
▁cartoonist	-11.5352
through	-11.5352
distance	-11.5352
hungary	-11.5352
million	-11.5358
▁fiber	-11.5361
▁electrode	-11.5361
▁supposedly	-11.5362
▁helicopter	-11.5362
poem	-11.5362
▁frog	-11.5362
▁modification	-11.5362
▁claw	-11.5365
▁graduated	-11.5365
mba	-11.537
▁indicator	-11.5373
jack	-11.5373
▁ballet	-11.5374
meaning	-11.5381
▁screening	-11.5382
▁alder	-11.5385
▁sentenced	-11.5389
▁lgbt	-11.5389
▁customer	-11.5392
▁attractions	-11.5397
▁kor	-11.5398
angle	-11.5398
▁fighters	-11.5404
▁speeches	-11.5405
founder	-11.5406
▁jointly	-11.5406
illi	-11.5406
home	-11.5417
▁gland	-11.5418
▁dean	-11.5422
▁pathogen	-11.5428
vio	-11.5428
▁prominently	-11.543
beat	-11.543
factor	-11.5431
▁destroying	-11.5432
cyclic	-11.5435
▁regain	-11.5442
stad	-11.5443
▁salamanders	-11.5446
▁compute	-11.5448
▁embryo	-11.5452
▁soluble	-11.5452
|12	-11.5458
suit	-11.5467
▁bounded	-11.5467
number	-11.5469
▁prefix	-11.5469
hair	-11.5472
plant	-11.5475
correlation	-11.5476
▁olive	-11.5477
▁antibacterial	-11.5477
▁birmingham	-11.5477
▁tragedy	-11.5477
▁alyattes	-11.5477
▁convenient	-11.5477
▁demolished	-11.5477
▁eligible	-11.5477
▁embassy	-11.5477
▁integrity	-11.5477
▁minnesota	-11.5477
▁observing	-11.5477
▁occult	-11.5477
▁prestigious	-11.5477
▁secession	-11.5477
▁substrate	-11.5477
▁vicinity	-11.5477
▁prairie	-11.5477
▁flanders	-11.5477
▁vincent	-11.5477
▁cipher	-11.5477
▁temperate	-11.5477
▁basilica	-11.5477
▁catalan	-11.5477
▁aarau	-11.5477
▁neighbourhood	-11.5478
▁boeing	-11.5478
▁payload	-11.5478
▁simulate	-11.5478
▁shaft	-11.5479
▁dawn	-11.5479
▁radial	-11.5479
▁coptic	-11.5484
▁1891	-11.5485
▁spreading	-11.5485
▁statistic	-11.5488
▁doubleday	-11.5488
▁attica	-11.5488
▁scroll	-11.5488
▁tenure	-11.5488
▁wonder	-11.5493
▁hinduism	-11.5494
▁amphi	-11.5496
▁upward	-11.5497
nico	-11.5498
▁acclaimed	-11.55
▁suburb	-11.55
soluble	-11.5501
blood	-11.5502
treaties	-11.5503
▁flourished	-11.5504
▁healthy	-11.5504
▁chan	-11.5513
▁lyric	-11.5516
arabic	-11.5518
▁pond	-11.5521
louis	-11.5522
near	-11.5527
acid	-11.5535
named	-11.5536
protective	-11.5544
▁devi	-11.5545
saharan	-11.5546
▁mg	-11.5552
▁(13	-11.5561
utta	-11.5569
▁cole	-11.5572
common	-11.5572
▁mess	-11.5577
▁capitalism	-11.5585
▁alexandr	-11.5585
manda	-11.5587
analys	-11.5591
▁pakistani	-11.5597
current	-11.5601
▁abolition	-11.5605
▁cyclic	-11.5605
▁helm	-11.5607
▁ayer	-11.5607
▁gather	-11.5618
▁loved	-11.5618
▁alternatively	-11.5621
▁clients	-11.5625
▁calculus	-11.5626
▁cassette	-11.5626
▁columbus	-11.5626
▁critique	-11.5626
▁deceased	-11.5626
▁diaspora	-11.5626
▁displacement	-11.5626
▁energies	-11.5626
▁jerome	-11.5626
▁propellant	-11.5626
▁roosevelt	-11.5626
▁sympathetic	-11.5626
▁admired	-11.5626
▁arnulf	-11.5626
▁mennonite	-11.5626
▁trilogy	-11.5626
▁capitol	-11.5626
▁obama	-11.5626
▁ideological	-11.5626
▁pepper	-11.5626
▁ralph	-11.5626
▁essence	-11.5626
▁injection	-11.5626
▁ernest	-11.5626
▁weakened	-11.5626
▁resemblance	-11.5627
▁mapping	-11.5627
▁altogether	-11.5628
▁seventeen	-11.5628
▁nicene	-11.5628
▁elimination	-11.5628
▁brutal	-11.5628
▁summary	-11.5628
▁cooperative	-11.5629
▁riding	-11.563
▁trademark	-11.5632
▁accelerated	-11.5632
▁laugh	-11.5633
▁($	-11.5634
▁astoria	-11.5634
▁1894	-11.5635
▁1869	-11.5636
▁characterised	-11.5636
▁traded	-11.5638
▁suddenly	-11.564
▁lightning	-11.5641
▁mouse	-11.5647
▁boris	-11.5647
▁traits	-11.5647
▁beaches	-11.5647
▁disciples	-11.5651
▁sake	-11.5651
emia	-11.5654
▁oh	-11.5656
women	-11.5656
multi	-11.5656
lunar	-11.5658
seller	-11.5659
▁corrupt	-11.566
▁alteration	-11.5662
▁sustain	-11.5663
▁fbi	-11.5663
▁quotes	-11.5664
▁ivan	-11.5665
release	-11.5667
▁voiceless	-11.5667
▁colored	-11.5668
▁aligned	-11.5669
▁bn	-11.5669
–13	-11.5673
▁rider	-11.5677
plus	-11.5678
▁activated	-11.5681
▁julia	-11.5683
▁trim	-11.5683
▁wy	-11.5684
▁attained	-11.5686
▁sax	-11.5687
boy	-11.5688
founded	-11.5692
▁lamo	-11.5694
▁emotions	-11.5698
▁relate	-11.5701
▁clinic	-11.5702
▁principally	-11.5703
▁diplomat	-11.5705
oxide	-11.5709
chloro	-11.5722
playing	-11.5731
audi	-11.5731
▁anion	-11.5745
▁50,000	-11.575
▁eco	-11.5754
▁vine	-11.5755
▁lever	-11.5759
−1	-11.577
▁catalog	-11.5776
▁hazard	-11.5776
▁dissolution	-11.5777
▁gautama	-11.5777
▁illegitimate	-11.5777
▁irrigation	-11.5777
▁maghreb	-11.5777
▁neolithic	-11.5777
▁norwegian	-11.5777
▁pausanias	-11.5777
▁schirra	-11.5777
▁simplified	-11.5777
▁spectator	-11.5777
▁transcription	-11.5777
▁cleveland	-11.5777
▁collision	-11.5777
▁controversies	-11.5777
▁humanitarian	-11.5777
▁automated	-11.5778
▁albeit	-11.5778
▁dixon	-11.5778
▁ghost	-11.5778
▁circa	-11.5778
▁elastic	-11.5778
▁concord	-11.5778
▁antares	-11.5778
▁granada	-11.5778
dividing	-11.5779
▁empress	-11.5779
▁madrid	-11.5779
still	-11.578
▁fraud	-11.578
cycle	-11.578
▁edgar	-11.578
▁subgroup	-11.5781
▁managing	-11.5781
▁holland	-11.5781
▁customary	-11.5782
▁wright	-11.5786
▁encompasses	-11.5787
▁1897	-11.5788
▁saga	-11.579
▁extinction	-11.579
ographer	-11.5791
#	-11.5791
▁screenwriter	-11.5791
▁intentionally	-11.5792
▁commenced	-11.5794
▁vertebrates	-11.5795
▁photography	-11.5798
▁palmer	-11.5798
▁cbs	-11.5799
▁manifestation	-11.58
▁cameron	-11.5802
▁blo	-11.5809
▁marshall	-11.5809
▁sec	-11.5813
trem	-11.5814
liance	-11.5816
▁fc	-11.5816
▁jacques	-11.5823
mala	-11.5823
▁victim	-11.5824
▁exceeded	-11.5824
▁ansi	-11.5826
▁slower	-11.5836
force	-11.5836
▁db	-11.5837
onym	-11.5837
▁qualify	-11.5843
▁sack	-11.5845
title	-11.5846
▁foreigners	-11.5847
▁salad	-11.5847
▁walker	-11.585
1,000	-11.5855
stellar	-11.5857
▁thorn	-11.5861
ín	-11.5864
armed	-11.5867
▁lungs	-11.5869
hip	-11.587
▁variously	-11.5878
▁6,000	-11.5879
▁guitarist	-11.5885
▁lanka	-11.5896
wy	-11.5896
evi	-11.5898
▁soup	-11.5899
pala	-11.5901
▁resign	-11.5905
▁40,000	-11.5907
▁integrate	-11.5912
▁sudden	-11.5917
▁projected	-11.5919
▁tai	-11.5921
royal	-11.5923
udi	-11.5926
▁rotate	-11.5928
▁horizon	-11.593
▁alzheimer	-11.5931
▁copenhagen	-11.5931
▁disadvantage	-11.5931
▁holocaust	-11.5931
▁inscribed	-11.5931
▁mercenaries	-11.5931
▁nuremberg	-11.5931
▁protagonist	-11.5931
▁unpopular	-11.5931
▁venezuela	-11.5931
▁bradley	-11.5931
▁ordinance	-11.5931
▁incidence	-11.5931
▁scythia	-11.5931
▁lexical	-11.5932
▁spiral	-11.5932
▁antoine	-11.5932
▁comparing	-11.5932
▁sofia	-11.5932
▁worshipped	-11.5933
▁captive	-11.5933
▁hamburg	-11.5933
▁rotating	-11.5933
▁aerial	-11.5933
▁invalid	-11.5934
▁fatty	-11.5934
▁delhi	-11.5935
▁nbc	-11.5935
▁abort	-11.5936
▁substitution	-11.5936
▁mecca	-11.5936
bodhi	-11.5937
▁disney	-11.5938
▁presum	-11.594
▁1892	-11.5942
▁drone	-11.5942
▁mistaken	-11.5943
▁arius	-11.5944
▁eject	-11.5946
▁retro	-11.5948
▁canova	-11.5948
▁herald	-11.5949
▁relay	-11.5951
▁crushed	-11.5951
▁perfection	-11.5952
▁punch	-11.5953
▁anticipated	-11.5959
stitution	-11.5963
▁compatibility	-11.5964
transport	-11.5965
hom	-11.5968
▁bold	-11.5968
101	-11.5968
▁battlecruisers	-11.597
▁whenever	-11.597
without	-11.597
▁paleo	-11.5972
▁iraqi	-11.5972
▁carter	-11.5972
werk	-11.5976
▁vase	-11.5977
▁warhead	-11.5979
homo	-11.5983
▁simpler	-11.5987
▁adb	-11.5987
indo	-11.5997
valent	-11.6001
numbered	-11.6001
grant	-11.6002
▁similarity	-11.6002
▁technically	-11.6003
▁distributors	-11.6003
▁125	-11.6007
▁140	-11.6009
ianus	-11.601
/2	-11.6021
▁meter	-11.6028
▁tab	-11.6034
aloe	-11.6034
▁loaded	-11.6035
=10	-11.6036
▁fest	-11.6036
▁luis	-11.6037
▁watching	-11.6041
▁neil	-11.6045
▁render	-11.6046
▁taxi	-11.6047
▁facilitat	-11.6048
▁ranch	-11.6051
▁contested	-11.6052
▁toured	-11.6055
ophon	-11.6064
hak	-11.6068
▁explicit	-11.6073
hā	-11.6075
▁pil	-11.6075
produced	-11.6076
▁hook	-11.6082
▁advertise	-11.6085
▁nucleo	-11.6087
responsibilities	-11.6088
▁accommodation	-11.6088
▁arcadius	-11.6088
▁aristocracy	-11.6088
▁baltimore	-11.6088
▁caspian	-11.6088
▁flexible	-11.6088
▁homogeneous	-11.6088
▁mahayana	-11.6088
▁manipulate	-11.6088
▁obsolete	-11.6088
▁pamphlet	-11.6088
▁parallax	-11.6088
▁registration	-11.6088
▁resurrection	-11.6088
▁reuptake	-11.6088
▁slaughter	-11.6088
▁vladimir	-11.6088
▁wozniak	-11.6088
▁bleeding	-11.6088
▁translator	-11.6088
▁jensen	-11.6088
▁metaphor	-11.6088
▁adherents	-11.6088
▁chlorine	-11.6088
▁choosing	-11.6088
▁invitation	-11.6088
▁sierra	-11.6088
▁presbyterian	-11.6088
▁animism	-11.6088
▁escort	-11.6088
▁racism	-11.6088
▁summariz	-11.6088
▁maurice	-11.6088
▁toronto	-11.6088
▁canyon	-11.6089
▁focal	-11.609
▁severity	-11.609
▁undergraduate	-11.609
▁lodge	-11.609
▁harold	-11.6091
▁admission	-11.6092
apopto	-11.6093
▁prohibition	-11.6096
▁sancti	-11.6096
▁xiii	-11.6098
handed	-11.6098
▁motivated	-11.6099
▁excavated	-11.6099
▁documentation	-11.61
▁veto	-11.61
▁comparatively	-11.6102
▁orwell	-11.6103
amino	-11.6103
▁scarce	-11.6103
▁indirectly	-11.6107
▁interim	-11.6107
▁revere	-11.6112
▁parishes	-11.6112
immun	-11.6113
dha	-11.6113
▁guaranteed	-11.6117
kra	-11.6118
methyl	-11.6121
author	-11.6122
process	-11.6122
purpose	-11.6123
▁posed	-11.6123
▁conclude	-11.6123
ddy	-11.6127
alumin	-11.6127
country	-11.6129
▁exclud	-11.6131
▁popularized	-11.6135
bund	-11.6135
▁antipsychotic	-11.6144
▁cope	-11.6144
eater	-11.6145
tino	-11.6149
▁libertarian	-11.615
=20	-11.6151
▁cuba	-11.6158
▁pill	-11.6163
etto	-11.6168
_9	-11.6171
▁verbal	-11.6181
gnosticism	-11.6189
▁staged	-11.6199
▁photon	-11.62
ige	-11.6202
▁incorporat	-11.6203
▁heroic	-11.6204
▁anthropologists	-11.6209
equal	-11.621
▁threaten	-11.6211
ubi	-11.6211
▁bend	-11.6214
▁beating	-11.6217
▁graf	-11.6217
▁consume	-11.6218
▁sr	-11.6223
astron	-11.6227
▁comparative	-11.6232
▁depart	-11.6236
320	-11.6236
ichi	-11.6237
▁gyr	-11.6238
▁suited	-11.6238
plate	-11.6242
▁minimize	-11.6243
sculpt	-11.6246
▁advancing	-11.6246
▁attribution	-11.6246
▁brethren	-11.6246
▁commutative	-11.6246
▁feminine	-11.6246
▁galaxy	-11.6246
▁gravitational	-11.6246
▁investigating	-11.6246
▁odysseus	-11.6246
▁platinum	-11.6246
▁poseidon	-11.6246
▁unchanged	-11.6246
▁amraam	-11.6246
▁contemplat	-11.6246
▁cathode	-11.6246
▁jihad	-11.6246
▁watson	-11.6246
▁conceal	-11.6246
▁soccer	-11.6246
▁gentle	-11.6246
▁settling	-11.6246
▁compell	-11.6246
▁endorsed	-11.6246
▁ordination	-11.6246
▁inquiry	-11.6247
▁aerospace	-11.6247
▁accusations	-11.6247
▁hectares	-11.6247
▁victorious	-11.6247
close	-11.6248
▁intact	-11.6248
▁stronghold	-11.6248
▁derby	-11.625
▁intersection	-11.6251
▁seattle	-11.6251
▁textual	-11.6251
▁hawaiian	-11.6251
▁motive	-11.6252
▁ussr	-11.6253
asterix	-11.6254
▁1848	-11.6256
▁dispatched	-11.6256
▁offset	-11.6256
▁obligation	-11.6257
▁overlook	-11.6258
▁ethiopian	-11.6259
▁raiders	-11.6259
▁jury	-11.6262
▁brig	-11.6262
▁grip	-11.6267
▁annexed	-11.6268
▁inserted	-11.6272
▁$7	-11.6273
▁hermes	-11.6277
▁simplest	-11.6278
▁sharply	-11.628
induced	-11.6283
▁regained	-11.6284
▁adventist	-11.6285
psycho	-11.6285
=9	-11.6286
▁grid	-11.6286
▁rendering	-11.6288
▁dissolve	-11.6292
▁android	-11.6295
▁competed	-11.6298
▁magical	-11.6298
rā	-11.6307
▁coca	-11.6307
fellows	-11.6307
▁busy	-11.631
▁textile	-11.6313
▁java	-11.6313
▁orthodoxy	-11.6319
▁packed	-11.632
▁comprise	-11.6321
▁greg	-11.6325
▁athletes	-11.6326
▁watched	-11.6342
▁outline	-11.6344
▁sealed	-11.6345
rp	-11.6353
▁favoured	-11.6355
▁nora	-11.6361
▁(9	-11.6362
▁spur	-11.6365
▁genesis	-11.6366
▁compress	-11.6371
▁adjust	-11.6374
kind	-11.6378
yama	-11.6382
wash	-11.6384
▁indiana	-11.6386
▁refuse	-11.6387
▁theodor	-11.639
▁omni	-11.6397
▁dé	-11.6399
▁doll	-11.64
▁spontaneous	-11.6408
▁vigorous	-11.6408
▁aggregate	-11.6408
▁anaximander	-11.6408
▁ascension	-11.6408
▁consecrated	-11.6408
▁diplomacy	-11.6408
▁encouraging	-11.6408
▁inaugurated	-11.6408
▁nagorno	-11.6408
▁occupies	-11.6408
▁sweep	-11.6408
▁unprecedented	-11.6408
▁albinism	-11.6408
▁arminius	-11.6408
▁erosion	-11.6408
▁nominee	-11.6408
▁optimal	-11.6408
▁spencer	-11.6408
▁ambrosia	-11.6408
▁migrants	-11.6408
▁salinity	-11.6408
▁commentators	-11.6408
▁antipope	-11.6408
▁fortifications	-11.6408
▁cairo	-11.6408
▁steady	-11.6408
▁syntax	-11.6408
elegant	-11.6408
▁aether	-11.6408
▁linux	-11.6408
▁restrain	-11.6408
▁continually	-11.6409
▁trophy	-11.6409
▁squad	-11.6409
▁motorola	-11.641
▁sutta	-11.6411
▁birthplace	-11.6412
▁unofficial	-11.6412
▁hammer	-11.6413
▁donations	-11.6414
▁1846	-11.6415
▁anchorage	-11.6416
▁encompass	-11.6416
▁1858	-11.6417
▁fused	-11.6418
▁blade	-11.642
▁amati	-11.642
▁functionality	-11.642
▁1778	-11.6428
▁burst	-11.6431
▁limiting	-11.6433
since	-11.6434
▁1888	-11.6441
write	-11.6444
▁sacked	-11.6445
communist	-11.6447
producing	-11.6447
austrian	-11.6447
organized	-11.6448
▁105	-11.6449
connect	-11.6449
▁nigeria	-11.6449
rode	-11.6456
▁blocked	-11.6458
shadow	-11.6459
lining	-11.646
▁wit	-11.646
▁oceanic	-11.6462
▁tracking	-11.6465
▁nun	-11.6467
▁sever	-11.6473
▁crashed	-11.6474
▁dinosaur	-11.6474
▁modem	-11.6475
▁weakly	-11.6481
▁throwing	-11.6481
▁judged	-11.6482
|5	-11.6486
▁shri	-11.6488
▁spell	-11.6492
▁lung	-11.6497
▁fad	-11.6501
▁negatively	-11.6502
▁mixing	-11.6503
▁contractor	-11.6505
▁sensors	-11.6515
▁tiger	-11.6517
ça	-11.652
▁tasman	-11.652
▁exported	-11.6534
▁counting	-11.6535
▁punish	-11.6538
brain	-11.6538
▁niger	-11.6539
brightest	-11.6539
worthy	-11.6544
▁dispens	-11.6556
▁pink	-11.6567
▁provisional	-11.6569
▁synonym	-11.657
▁constrain	-11.657
synchronous	-11.6572
▁torpedo	-11.6572
mujahideen	-11.6572
▁amputation	-11.6572
▁anaximenes	-11.6572
▁auxiliary	-11.6572
▁bennett	-11.6572
▁biodiversity	-11.6572
▁conjugate	-11.6572
▁emigrants	-11.6572
▁glucose	-11.6572
▁happiness	-11.6572
▁hypotheses	-11.6572
▁impressive	-11.6572
▁mohammad	-11.6572
▁mozart	-11.6572
▁zunbil	-11.6572
▁sulfate	-11.6572
▁methane	-11.6572
▁canberra	-11.6572
▁nickel	-11.6572
▁cerebr	-11.6572
▁retaliat	-11.6572
▁dinner	-11.6572
▁lerner	-11.6572
▁gladstone	-11.6572
▁expectancy	-11.6572
glacial	-11.6572
▁archaic	-11.6572
▁pompey	-11.6572
▁chariot	-11.6572
▁creole	-11.6572
▁gaming	-11.6573
▁cruz	-11.6573
▁feedback	-11.6573
▁generator	-11.6573
▁humid	-11.6574
▁balkh	-11.6574
▁proving	-11.6574
▁balloon	-11.6574
▁spray	-11.6576
▁marvel	-11.6576
elect	-11.6577
▁fitness	-11.6577
▁sistan	-11.6579
zero	-11.658
▁tooth	-11.6583
▁intend	-11.6583
▁1837	-11.6585
▁jail	-11.6585
▁spice	-11.6587
▁lenses	-11.6588
▁overview	-11.6589
▁germanicus	-11.659
rama	-11.6593
▁256	-11.6593
▁synthesized	-11.6594
▁sued	-11.6595
▁grove	-11.6597
▁traders	-11.66
▁banu	-11.6601
▁utilized	-11.6602
▁wax	-11.6606
roving	-11.6607
source	-11.6608
▁portable	-11.6611
church	-11.6615
arche	-11.6615
control	-11.6616
▁impos	-11.6621
▁denomination	-11.6625
classical	-11.6629
flight	-11.6631
fusion	-11.6635
iec	-11.6635
▁nitri	-11.6636
gua	-11.6638
▁cylinder	-11.6641
ambi	-11.6642
▁plo	-11.6645
▁preach	-11.6653
nsted	-11.6661
2,000	-11.6661
▁rolling	-11.6663
▁urn	-11.6674
▁sleeping	-11.6678
polarized	-11.6683
▁coupled	-11.6683
owski	-11.6684
6,000	-11.6691
▁labeled	-11.6693
treat	-11.6694
▁paulo	-11.6696
▁shade	-11.6699
esti	-11.6701
▁lengthy	-11.6702
▁resid	-11.6703
▁cox	-11.6705
match	-11.6709
▁rem	-11.6709
▁adviser	-11.6711
▁0.1	-11.6717
▁suppose	-11.6719
▁update	-11.672
▁structured	-11.6723
▁faint	-11.6723
▁brun	-11.6724
▁punjab	-11.6727
ucci	-11.6727
enhanc	-11.6729
basic	-11.6734
▁interchange	-11.6738
▁antagonist	-11.6738
▁alternating	-11.6738
▁argentine	-11.6738
▁astrologer	-11.6738
▁billiard	-11.6738
▁cleopatra	-11.6738
▁eisenhower	-11.6738
▁epidemic	-11.6738
▁esoteric	-11.6738
▁fertility	-11.6738
▁google	-11.6738
▁jonathan	-11.6738
▁nevada	-11.6738
▁prestige	-11.6738
▁prevalence	-11.6738
▁saturday	-11.6738
▁venetian	-11.6738
▁pottery	-11.6738
▁slayton	-11.6738
▁absurd	-11.6738
▁bhangra	-11.6738
▁housman	-11.6738
▁sampras	-11.6738
▁repeal	-11.6738
▁mattingly	-11.6738
▁welcomed	-11.6738
▁casino	-11.6738
▁adolf	-11.6738
▁arteries	-11.6738
▁deacon	-11.6739
▁alma	-11.6739
▁spatial	-11.6739
▁inheritance	-11.6739
▁tumor	-11.6742
▁crusaders	-11.6742
▁submission	-11.6743
▁invaders	-11.6744
▁greet	-11.6744
▁bug	-11.6745
▁gunship	-11.6746
▁brush	-11.6746
|16	-11.6747
mata	-11.6749
▁domesticated	-11.6749
▁abram	-11.675
▁duck	-11.6751
▁hank	-11.6752
▁oriental	-11.6752
▁sultanate	-11.6754
▁encoded	-11.6754
▁warrant	-11.6757
▁hint	-11.6758
▁prehistoric	-11.6758
america	-11.6759
▁reconstructed	-11.6761
▁sexuality	-11.6762
▁surpassed	-11.6763
▁canceled	-11.6767
▁upgraded	-11.6769
▁gw	-11.6769
▁indoor	-11.6769
▁maur	-11.6772
▁stern	-11.6772
▁noticed	-11.6773
▁foxes	-11.6773
▁15%	-11.6774
▁pork	-11.678
profit	-11.6781
▁rebuild	-11.6783
▁intensive	-11.6784
fast	-11.6784
children	-11.6784
amber	-11.6784
mother	-11.6788
▁elderly	-11.6789
spirit	-11.6792
▁lust	-11.6794
▁recurr	-11.6794
ocyt	-11.6795
▁strengthened	-11.6795
storm	-11.6796
wept	-11.6797
▁stretching	-11.6797
▁exploited	-11.6805
▁boss	-11.6806
▁theologian	-11.6816
▁placement	-11.6819
▁tide	-11.6827
=34	-11.6832
total	-11.6834
plu	-11.6837
▁secur	-11.6841
breaking	-11.6844
quet	-11.6844
▁kro	-11.6848
▁walked	-11.6852
▁350	-11.6856
▁spy	-11.6868
▁casa	-11.6869
▁deploy	-11.6871
▁administer	-11.6873
▁leto	-11.6884
micro	-11.6891
▁ethiopia	-11.6894
▁coil	-11.6895
▁imitat	-11.6904
aldehyde	-11.6908
anthroposophy	-11.6908
württemberg	-11.6908
▁absalom	-11.6908
▁ancestral	-11.6908
▁armadillo	-11.6908
▁colombia	-11.6908
▁devastated	-11.6908
▁giovanni	-11.6908
▁inaugural	-11.6908
▁kerensky	-11.6908
▁mandelbrot	-11.6908
▁papyrus	-11.6908
▁precipitate	-11.6908
▁rutherford	-11.6908
▁spectroscopy	-11.6908
▁stockholm	-11.6908
▁survivor	-11.6908
ovascular	-11.6908
▁felix	-11.6908
▁abugida	-11.6908
▁carriage	-11.6908
▁airborne	-11.6908
▁amorphous	-11.6908
▁abjad	-11.6908
▁maratha	-11.6908
▁notorious	-11.6908
▁thermodynamic	-11.6908
▁shuttle	-11.6908
▁surplus	-11.6908
▁enduring	-11.6908
▁trunk	-11.6908
▁unicode	-11.6908
▁dominican	-11.6908
▁helium	-11.6908
▁morphological	-11.6908
▁aboriginal	-11.6908
phenyl	-11.6908
▁barbara	-11.6909
▁addiction	-11.6909
▁jewelry	-11.6909
▁entail	-11.6909
▁subtle	-11.691
▁pilgrimage	-11.691
▁interfere	-11.691
▁silence	-11.6911
▁hadrian	-11.6911
iol	-11.6912
▁greco	-11.6913
▁mansion	-11.6914
▁contradiction	-11.6915
▁filing	-11.6917
▁1844	-11.6917
▁fertilizer	-11.6918
▁salary	-11.6918
angel	-11.6918
▁believers	-11.692
▁deviation	-11.6921
▁summon	-11.6922
▁poetic	-11.6926
▁1815	-11.693
▁sixty	-11.6931
▁outward	-11.6931
▁wishes	-11.6932
▁pitching	-11.6932
▁ovid	-11.6935
▁relocated	-11.6939
▁walt	-11.6946
tex	-11.6949
edge	-11.695
novo	-11.6955
except	-11.6956
dutch	-11.6956
▁tyre	-11.6958
brother	-11.6958
ductive	-11.6963
▁romanian	-11.6963
▁triggered	-11.6964
proof	-11.6966
370	-11.6967
engine	-11.697
▁void	-11.6972
▁pub	-11.6972
▁georg	-11.6973
small	-11.6979
▁specially	-11.698
–11	-11.6981
ár	-11.6985
sharing	-11.6986
▁immigrant	-11.6992
▁squadron	-11.6992
sound	-11.6995
▁hail	-11.6997
▁humanist	-11.7002
▁phosphate	-11.7008
▁openly	-11.7011
▁lifted	-11.7015
▁waiting	-11.7031
trip	-11.704
▁illustrate	-11.704
bib	-11.7043
▁turner	-11.7048
▁converting	-11.7054
▁inertia	-11.7055
▁terror	-11.7055
fat	-11.7059
▁convince	-11.7061
▁genuine	-11.7061
▁colloquial	-11.7066
lessness	-11.7068
pay	-11.707
▁$10	-11.7072
▁careful	-11.7073
▁advis	-11.7076
▁pilgrim	-11.7078
ossa	-11.7079
inflammatory	-11.708
köppen	-11.708
norepinephrine	-11.708
▁apprentice	-11.708
▁asparagales	-11.708
▁caspase	-11.708
▁compulsory	-11.708
▁giacometti	-11.708
▁hydride	-11.708
▁inconsistent	-11.708
▁inorganic	-11.708
▁kilometers	-11.708
▁prosecution	-11.708
▁reconcile	-11.708
▁savanna	-11.708
▁steinsaltz	-11.708
▁suffrage	-11.708
▁sworn	-11.708
▁bahamian	-11.708
▁forbidden	-11.708
▁leopold	-11.708
▁magistrate	-11.708
▁spalding	-11.708
▁envoy	-11.708
▁retriev	-11.708
▁gustav	-11.708
▁endemic	-11.708
▁sensi	-11.708
▁boiling	-11.708
▁glory	-11.708
▁insignia	-11.708
▁packaging	-11.708
▁awakening	-11.708
▁supp	-11.7081
▁pivot	-11.7081
▁chromosome	-11.7081
▁masterpiece	-11.7081
▁dublin	-11.7082
▁preserving	-11.7082
▁synonymous	-11.7082
▁bundle	-11.7082
▁vietnamese	-11.7082
▁laurents	-11.7082
▁emitted	-11.7082
▁colonization	-11.7082
▁ballroom	-11.7083
▁wives	-11.7084
▁meyer	-11.7084
ullah	-11.7084
▁workforce	-11.7086
▁afro	-11.7087
▁projectile	-11.7088
▁clement	-11.7088
▁traveller	-11.7088
▁interstate	-11.7089
▁refusal	-11.7089
▁groom	-11.709
▁elector	-11.7092
▁shelf	-11.7092
▁turbo	-11.7094
▁advancement	-11.7094
▁assertion	-11.7095
▁1824	-11.7096
▁chaos	-11.7096
▁dictate	-11.7097
▁iphone	-11.7097
▁100%	-11.7098
▁demanding	-11.71
clockwise	-11.71
▁fuze	-11.71
▁françois	-11.7101
▁monumental	-11.7105
▁forestry	-11.7107
▁1.0	-11.7108
▁breach	-11.7109
▁basel	-11.7114
circu	-11.7116
▁adjusted	-11.7117
evil	-11.7119
▁terrorism	-11.712
▁2.0	-11.7121
▁hexa	-11.7121
▁withdrawn	-11.7123
raven	-11.7125
vre	-11.7129
record	-11.7131
ethnic	-11.7132
▁nationalism	-11.7134
australian	-11.7134
alien	-11.7137
▁bolt	-11.7137
▁crow	-11.7139
were	-11.7143
▁discontinu	-11.7149
parent	-11.7151
▁jew	-11.7152
▁flowering	-11.7162
▁timing	-11.7166
guer	-11.7167
▁servant	-11.717
▁fab	-11.7192
▁gramm	-11.7193
▁gur	-11.7204
ival	-11.721
▁loud	-11.7211
▁compa	-11.7214
▁internally	-11.7215
▁mot	-11.7222
▁emotion	-11.7229
▁rené	-11.7229
88)	-11.7235
▁corinth	-11.7239
▁nationality	-11.7241
▁realize	-11.725
▁alkynes	-11.7256
▁amoxicillin	-11.7256
▁calculating	-11.7256
▁desirable	-11.7256
▁hypothetical	-11.7256
▁inexpensive	-11.7256
▁psychiatric	-11.7256
▁vernacular	-11.7256
▁wisconsin	-11.7256
▁yerevan	-11.7256
▁amstrad	-11.7256
▁engaging	-11.7256
▁impairment	-11.7256
▁microorganism	-11.7256
▁quarry	-11.7256
▁sulfide	-11.7256
▁afyon	-11.7256
▁prolonged	-11.7256
▁thailand	-11.7256
▁alicante	-11.7256
▁pliny	-11.7256
▁aperture	-11.7256
▁aargau	-11.7256
▁ceiling	-11.7256
▁toffler	-11.7256
▁residual	-11.7256
▁allegory	-11.7256
▁abnormal	-11.7256
▁breakthrough	-11.7256
▁gauge	-11.7257
▁epirus	-11.7257
▁coinage	-11.7257
dynastic	-11.7257
▁monoamine	-11.7258
▁graphite	-11.7258
▁equator	-11.7258
▁yeast	-11.7258
▁insult	-11.7258
▁arminianism	-11.7259
▁friday	-11.7259
▁potatoes	-11.726
▁download	-11.726
ellen	-11.726
▁strand	-11.7263
▁lessons	-11.7266
▁favourite	-11.7266
▁embarked	-11.7266
_17	-11.7267
▁webb	-11.7267
▁advisory	-11.7267
▁westward	-11.7268
▁instructor	-11.7269
▁suburban	-11.7273
bahn	-11.7274
▁stepped	-11.7276
▁pretend	-11.7276
▁croatian	-11.7278
realist	-11.7284
large	-11.7286
▁mentor	-11.7287
▁progressively	-11.7289
▁mk	-11.7292
▁punished	-11.7293
heli	-11.7293
annales	-11.7296
charge	-11.7297
▁schism	-11.73
▁campuses	-11.73
govern	-11.7302
▁vale	-11.7302
▁perfectly	-11.7304
effect	-11.7308
▁niche	-11.7309
mobile	-11.7309
object	-11.731
surface	-11.731
business	-11.7311
running	-11.7313
fact	-11.732
▁practically	-11.7324
▁balanced	-11.7328
▁zion	-11.733
▁lime	-11.7338
▁universally	-11.7342
▁colleague	-11.7352
▁parameter	-11.7353
▁employee	-11.7354
rgic	-11.7355
▁graphical	-11.7359
▁publicity	-11.7363
▁adapter	-11.7367
▁bam	-11.7372
▁serie	-11.7372
▁drafted	-11.7376
▁mw	-11.7377
▁kara	-11.7378
▁airliner	-11.7379
▁flooding	-11.7382
▁brit	-11.7388
▁rosa	-11.7389
shima	-11.7392
▁cooler	-11.7395
every	-11.7398
▁exhibited	-11.7401
▁afterward	-11.7406
▁tang	-11.7408
▁strange	-11.7408
▁badge	-11.741
▁philipp	-11.7413
▁persist	-11.7419
genesis	-11.7423
▁apparatus	-11.7434
▁arguably	-11.7434
▁buckingham	-11.7434
▁cham	-11.7434
▁climatic	-11.7434
▁communal	-11.7434
▁disastrous	-11.7434
▁guerrilla	-11.7434
▁joystick	-11.7434
▁magnesium	-11.7434
▁miguel	-11.7434
▁separating	-11.7434
▁stilicho	-11.7434
▁subdivided	-11.7434
▁suspension	-11.7434
▁threshold	-11.7434
▁torvald	-11.7434
▁unnecessary	-11.7434
▁discourage	-11.7434
▁fascinat	-11.7434
▁bilateral	-11.7434
▁cognate	-11.7434
▁cruel	-11.7434
▁epistle	-11.7434
▁antenna	-11.7434
▁janeiro	-11.7434
▁eager	-11.7434
▁chrys	-11.7435
▁monopoly	-11.7435
▁sailors	-11.7435
▁miami	-11.7435
▁prague	-11.7436
▁supervision	-11.7436
▁hazardous	-11.7436
▁antisemitic	-11.7436
▁shirt	-11.7436
▁hatred	-11.7436
▁attachment	-11.7436
▁mankind	-11.7437
▁radiat	-11.7437
▁continuation	-11.7437
▁ltd	-11.7438
▁jeff	-11.744
▁hogan	-11.744
▁axes	-11.7441
▁conform	-11.7442
▁hastings	-11.7442
▁modernist	-11.7442
▁emir	-11.7442
▁goths	-11.7443
▁patronage	-11.7445
▁jason	-11.7445
island	-11.7445
▁realistic	-11.7445
▁1845	-11.7446
▁tense	-11.745
▁northward	-11.7452
▁1819	-11.7459
▁valve	-11.7464
▁diab	-11.7466
▁reich	-11.7468
▁barry	-11.7468
▁brian	-11.7469
▁200,000	-11.747
▁sensitivity	-11.7472
▁hack	-11.7473
▁peel	-11.7473
▁recite	-11.7475
▁anatolian	-11.7477
▁metaphysics	-11.7479
▁mythological	-11.7486
official	-11.7486
▁institutional	-11.7488
▁alert	-11.7492
murder	-11.7492
energy	-11.7492
normal	-11.7493
▁makers	-11.7494
▁philo	-11.7497
rolling	-11.7499
▁rounded	-11.7504
▁snap	-11.7505
▁classify	-11.7516
short	-11.7518
mary	-11.7527
▁tuning	-11.7529
make	-11.7529
_16	-11.7531
uddin	-11.754
▁viewers	-11.7542
eagle	-11.7545
▁cruiser	-11.7547
▁$6	-11.7559
pyr	-11.7562
▁eug	-11.7566
▁inhabit	-11.7581
▁minsk	-11.7583
risk	-11.7583
▁meaningful	-11.7587
shore	-11.7587
▁conducting	-11.7591
▁enact	-11.7593
▁shaw	-11.7594
▁illustrat	-11.7595
▁evolve	-11.7596
▁slo	-11.76
shah	-11.7601
▁contradict	-11.7608
▁esc	-11.7611
▁appreciat	-11.7612
▁keen	-11.7616
▁adriatic	-11.7616
▁budapest	-11.7616
▁catherine	-11.7616
▁challenging	-11.7616
▁cockpit	-11.7616
▁conductivity	-11.7616
▁illyrian	-11.7616
▁luminosity	-11.7616
▁nowadays	-11.7616
▁prejudice	-11.7616
▁reproductive	-11.7616
▁rigorous	-11.7616
▁septuagint	-11.7616
▁tributary	-11.7616
▁worcester	-11.7616
▁ascribed	-11.7616
▁degradation	-11.7616
▁pesticide	-11.7616
▁delegation	-11.7616
▁nomadic	-11.7616
▁subscribe	-11.7616
▁jamaica	-11.7616
▁agrippa	-11.7616
▁physiology	-11.7616
état	-11.7616
▁fredrik	-11.7616
▁parasites	-11.7616
▁affix	-11.7616
▁analyses	-11.7616
▁coronation	-11.7617
▁foremost	-11.7617
▁pascal	-11.7617
hydroxy	-11.7617
▁guild	-11.7617
▁satire	-11.7617
▁emigration	-11.7617
▁ecology	-11.7617
▁wholly	-11.7617
▁primate	-11.7618
▁spanning	-11.7618
▁warships	-11.7618
▁supernatural	-11.7618
▁tallard	-11.7619
▁adalbert	-11.7619
▁adjustment	-11.7619
▁mycenaean	-11.762
▁chadic	-11.762
▁everywhere	-11.7621
▁uncommon	-11.7621
▁sperm	-11.7622
▁bishopric	-11.7623
▁sherman	-11.7623
▁huns	-11.7626
▁oliver	-11.7626
▁haiti	-11.7626
▁confirmation	-11.7627
▁1884	-11.7628
▁superiority	-11.7628
▁utc	-11.763
▁fond	-11.7632
▁prevailing	-11.7633
lou	-11.7635
▁geologist	-11.7637
▁outlined	-11.7639
▁1820	-11.7641
▁usaf	-11.765
▁invad	-11.765
▁ionian	-11.7653
▁pear	-11.7654
have	-11.7665
▁initiate	-11.7669
▁diary	-11.767
▁johan	-11.7672
1960	-11.7674
▁analogy	-11.7676
introduc	-11.7677
scientific	-11.7678
persian	-11.7678
iyah	-11.7679
▁pulled	-11.768
▁undermine	-11.7682
guard	-11.7682
▁sue	-11.7688
▁sandy	-11.7691
▁filling	-11.7697
▁pushing	-11.7699
mode	-11.7706
▁misuse	-11.7708
▁quit	-11.7733
▁mob	-11.7745
firm	-11.7748
▁wald	-11.7755
▁patented	-11.7764
stage	-11.7769
rail	-11.778
▁resembl	-11.7781
▁concentrate	-11.7782
▁analyze	-11.7782
▁literal	-11.7787
▁scandinavia	-11.7788
litz	-11.7794
▁aldebaran	-11.7801
▁burmese	-11.7801
▁confiscat	-11.7801
▁contamination	-11.7801
▁dakota	-11.7801
▁decomposition	-11.7801
▁financing	-11.7801
▁hexagonal	-11.7801
▁inadequate	-11.7801
▁juvenile	-11.7801
▁melody	-11.7801
▁moisture	-11.7801
▁observatory	-11.7801
▁ouagadougou	-11.7801
▁penetration	-11.7801
▁prosecutor	-11.7801
▁quartet	-11.7801
▁reptiles	-11.7801
▁seizure	-11.7801
▁subtropical	-11.7801
▁exotic	-11.7801
▁implied	-11.7801
▁carthage	-11.7801
▁surgical	-11.7801
▁mosaic	-11.7801
▁disguise	-11.7801
▁bidding	-11.7801
▁vertebrae	-11.7802
▁ajmer	-11.7802
▁thread	-11.7802
▁boycott	-11.7802
▁autocorrelation	-11.7802
▁barbarian	-11.7802
▁accusative	-11.7802
▁prosperous	-11.7802
▁choral	-11.7802
▁traverse	-11.7802
▁smash	-11.7803
▁constraints	-11.7803
track	-11.7803
▁swamp	-11.7803
▁ensur	-11.7803
▁emblem	-11.7804
▁enlist	-11.7805
▁stalin	-11.7806
▁fellowship	-11.7806
▁weekend	-11.7806
▁advisor	-11.7808
▁methodology	-11.7811
▁hunger	-11.7812
▁1887	-11.7813
▁punjabi	-11.7814
eira	-11.7816
▁1839	-11.7816
▁alkaline	-11.7816
▁barley	-11.7818
▁1886	-11.7819
▁tran	-11.782
▁stru	-11.7824
▁dirt	-11.7824
▁indonesian	-11.7825
▁1825	-11.7826
▁animist	-11.7827
▁aristotelian	-11.7828
▁presided	-11.7833
▁umar	-11.7838
cuba	-11.7844
▁attendant	-11.7846
coll	-11.7848
riot	-11.785
▁gib	-11.785
öl	-11.7851
▁melan	-11.7852
half	-11.7861
fest	-11.7864
carrier	-11.7865
alcohol	-11.7865
academic	-11.7866
canadian	-11.7866
bearing	-11.7866
▁viable	-11.7866
derived	-11.7866
▁cure	-11.7871
▁glasses	-11.7873
supported	-11.7885
cape	-11.7887
▁lumi	-11.7894
quin	-11.7897
▁secretly	-11.7899
▁rico	-11.7917
▁ensured	-11.7921
▁complet	-11.7922
▁predator	-11.7923
sports	-11.7925
cola	-11.7951
▁flourish	-11.7956
▁anticipat	-11.7958
▁proclaim	-11.7958
mostly	-11.7962
▁disagree	-11.7968
▁retire	-11.7968
▁lydia	-11.7972
seat	-11.7972
original	-11.7974
▁simultaneous	-11.7975
▁mint	-11.7977
0°	-11.7977
▁concerto	-11.7979
roch	-11.7982
▁dug	-11.7984
▁hawaii	-11.7984
▁homosexual	-11.7987
▁privacy	-11.799
experiencing	-11.799
▁barracks	-11.799
▁dzungar	-11.799
▁incumbent	-11.799
▁milwaukee	-11.799
▁rendezvous	-11.799
▁spectrometer	-11.799
▁stewart	-11.799
▁susceptible	-11.799
▁cyanide	-11.799
▁jutland	-11.799
▁nixon	-11.799
▁stuart	-11.799
▁phosphorus	-11.799
▁horror	-11.799
▁erotic	-11.799
▁obey	-11.799
▁influx	-11.799
▁aegisthus	-11.799
▁bankruptcy	-11.799
▁taxonomy	-11.799
▁transparent	-11.7991
▁folded	-11.7991
▁plug	-11.7991
▁brahmi	-11.7992
▁conscience	-11.7993
▁urging	-11.7993
▁transmitter	-11.7993
▁warsaw	-11.7994
-1990	-11.7994
▁discount	-11.7994
▁viral	-11.7995
▁europa	-11.7995
▁viewpoint	-11.7996
▁benny	-11.7996
▁flock	-11.8
++	-11.8002
▁1847	-11.8003
▁lighthouse	-11.8003
▁proud	-11.8004
▁handful	-11.801
▁bonus	-11.8011
▁accumulator	-11.8013
▁subcontinent	-11.8014
▁leap	-11.8016
▁trench	-11.8016
▁abdur	-11.8019
▁moore	-11.8022
▁fence	-11.8023
▁discusses	-11.8024
▁underwater	-11.8025
izable	-11.803
hydrate	-11.8049
▁1.2	-11.8049
atari	-11.8049
[...]
